/**
  ******************************************************************************
  * @file    network_data_params.c
  * @author  AST Embedded Analytics Research Platform
  * @date    Wed Feb  7 14:55:56 2024
  * @brief   AI Tool Automatic Code Generator for Embedded NN computing
  ******************************************************************************
  * Copyright (c) 2024 STMicroelectronics.
  * All rights reserved.
  *
  * This software is licensed under terms that can be found in the LICENSE file
  * in the root directory of this software component.
  * If no LICENSE file comes with this software, it is provided AS-IS.
  ******************************************************************************
  */

#include "network_data_params.h"


/**  Activations Section  ****************************************************/
ai_handle g_network_activations_table[1 + 2] = {
  AI_HANDLE_PTR(AI_MAGIC_MARKER),
  AI_HANDLE_PTR(NULL),
  AI_HANDLE_PTR(AI_MAGIC_MARKER),
};




/**  Weights Section  ********************************************************/
AI_ALIGNED(32)
const ai_u64 s_network_weights_array_u64[53684] = {
  0x0U, 0x0U, 0x0U, 0xe7df17051a000000U,
  0xe2060800c9a981f9U, 0xf1d03fce8e7f803U, 0xd1ef0af40a010bf6U, 0xc212de1eea2e10eaU,
  0xeadfdfc830fed9ceU, 0x9eedc69b03e281eaU, 0xd5e5d58624563e8U, 0x507f7262516efa08U,
  0x21274e2134fbe2f7U, 0xf7ea2c18f1f7fa29U, 0x2d5631e9f1f2d122U, 0x5a5cdf0b191b784bU,
  0xf83126312f7f6e3dU, 0xd22bf4af22fb8114U, 0x22f9a4fdfd92fbfaU, 0xf72307de1cf6d4U,
  0x2fb03424c51fe623U, 0x813b3ca0250ee60aU, 0x1115dd1618de064aU, 0xedfddc0e03f328d8U,
  0xecfde802dcdc9d81U, 0x8f9fbf8e49c88ecU, 0x222fbfd0f06fd2eU, 0x776a437d69497f6eU,
  0x683a706243786e40U, 0x3c72624172683971U, 0x354a5733393a6f66U, 0x48f5757f19020c5cU,
  0xadbcf2f0cf51479U, 0xace5f006fff6cfdeU, 0xc200f6f9166022ecU, 0x3e9f10e7f4def97U,
  0x2f9f61925feebdeU, 0xeca8c1ecaadadf09U, 0x8eb6ca9ec2c19792U, 0x7f7ad9ee0da6c5e5U,
  0xf019ef55U, 0x0U, 0x0U, 0xca00000000000000U,
  0xf4ecf3e392c0eb9fU, 0xf06187f3910733dU, 0x205f4060bf5fd08U, 0xc6e352d5fa37fe08U,
  0xd07facec60ebfc2aU, 0x52ccf947d5ee3f9eU, 0xecff24c5ebU, 0x0U,
  0x0U, 0x0U, 0x50d1eab38a60U, 0xca74000024a0U,
  0x5d2d000367feU, 0x357b0001d72dU, 0x16aaffffc0673U, 0x14eb000000b8baU,
  0x14947ed4022e0U, 0xfdfa90b0000176d4U, 0xb551bb2782aa1394U, 0xb73707811cfefda6U,
  0x817f817f7f811833U, 0xe77f0a9731817fabU, 0x49a540b8fe5de718U, 0xe39c033df105e4a1U,
  0xce60cd40de77f81U, 0xf2e408cf930500e4U, 0xe30ae4f9f2c3d6b2U, 0x17028198f213a794U,
  0x1ee91f03023e010eU, 0x2bfd0deb02000681U, 0x31db23f90243b78dU, 0x17e70228040100b4U,
  0x11e025e5ff1cfc17U, 0x91e501c65300f383U, 0x130a0c04000ff915U, 0x8111036b8101048dU,
  0x553affffff5fU, 0x2b3800007f2fU, 0x1ee4600001f5cU, 0x626800003272U,
  0x1710ffffc38aU, 0x3ba500006904U, 0x63acfffffe43U, 0xffffff950000191aU,
  0xfd06f77f0216ef00U, 0xfc5700f79b8200U, 0x221b004b580bdd00U, 0xeb1b00c97f0000U,
  0x706d7f5f4fe00U, 0xfc7f00fbf20800U, 0x143e0f528102f400U, 0x1708001c024100U,
  0xf87f03a822e82400U, 0x16e800fc0bae00U, 0xeede2e402fcea00U, 0x7ff900e3fa0700U,
  0xf1d6f84101090d00U, 0x417a005f7f8701U, 0x90dfa117fde0b00U, 0x3301003fc04f00U,
  0xffff472c0000038cU, 0xffffc172ffffde68U, 0x19bffffbd69U, 0xffffa315ffffa359U,
  0x33d8ed03c2408106U, 0x7fa31c069aeb5c48U, 0x413d7f0351e30216U, 0x18e7eca57fbd4745U,
  0x81f819080e26c4e9U, 0x7f2efa0c2de4f819U, 0xe922fc4d8e81e728U, 0xbc39f02fe506077fU,
  0x810a0afd3a16bdfdU, 0x7fb306f416059778U, 0x3495f8fa2dc48192U, 0xe632ce8194f2daefU,
  0x7f2deeb952dc1b1aU, 0x0U, 0x362d7f2f02facff3U, 0x43c3131a81120a1fU,
  0x0U, 0x3227d2167fff2aU, 0xbaf0a050aff813cU, 0x6b92c68b627e0981U,
  0x350281f376dc311dU, 0xf357e9ebe97f2a4aU, 0xe4960838f681d1baU, 0xe77feefdccf66d91U,
  0x7f6ba9e07dcebcfbU, 0xb9c57f57242c0ff6U, 0xef8a27ec0081ed84U, 0x39487fe618dce302U,
  0x65177f2b0cc6f52eU, 0xf945030d187f083cU, 0xe455f400ccd57facU, 0x647fbc20fce38ed9U,
  0x6b3c52ec7fedfc00U, 0x7f10da0896f225fdU, 0x7ff90110a8f84104U, 0xc6570c56c3cd0c7fU,
  0x57a51ff410fd2981U, 0x51427f55e7dbd3faU, 0x1ff2fa7f53fe0e0aU, 0x7be4fd1681182103U,
  0xee56f90c195f177fU, 0x47267f1a34f4ebf8U, 0x44defed81a7f16acU, 0x8130f9e675f5c8f5U,
  0xc100f63581caf812U, 0x9674ec02e9e87f86U, 0x669930c83c780b81U, 0xef76f5effd6b067fU,
  0x4f00001138U, 0x1b1d00001afbU, 0x22e9000014acU, 0xffffffad00003b35U,
  0xfffffe8500000020U, 0x1a3000008f8U, 0xfae8e7180000310dU, 0x43d100001184U,
  0xffffff7efbe41280U, 0x5960fffffeebU, 0xffffffde00000ec7U, 0x10000000025U,
  0xfffffbf100000f76U, 0x36000000060U, 0x513000032edU, 0x3a060000093aU,
  0x16a00000db6U, 0xfffff5cf00000154U, 0x1bcd000001caU, 0x2ea5ffffff4fU,
  0x254d00000839U, 0xffffff68fffffeb5U, 0xffffff1000002d74U, 0x121600003d09U,
  0xb7b2d903f0f8e1dbU, 0xd574b9254a01c6f5U, 0xb48cb704f72aae8fU, 0x14601749e4b685e2U,
  0x578134193a009281U, 0x6ca9db00946ff5b1U, 0xac81813de2e4074dU, 0x4201ae277181a93cU,
  0xbc81950a053e9accU, 0x35bd21cbdb8b8cfeU, 0x7fa34d155840811aU, 0x6381e50481770881U,
  0xefc58fc3f40524e1U, 0xf19ab9082783f354U, 0xe6d9aff70c14e781U, 0x5e81af8edceecf8U,
  0x13f9291124499b68U, 0xcc603eea80703a7U, 0x8f6d38f1cac981a8U, 0x991cc05e72f188f0U,
  0x8194b333b35aa687U, 0x517fc07fd0aa812dU, 0x5f91b2e654f7a4d3U, 0x7c518aa19e704436U,
  0x81652a7f8181ad7fU, 0x7ffbf27f7f8c8169U, 0x8888817f817f81c4U, 0x7fa981848f81a17fU,
  0x5f9581c47f7f911aU, 0x7f7d8191927f7f49U, 0xdd1ee88da6bc1cc2U, 0xcfe4ba3b20b0e37fU,
  0xe9dca844ba31d5dbU, 0x11e3a50fa5d4ff32U, 0xf2f3c3dd1f73a21eU, 0x2a45e0c3ae07352eU,
  0xd40024fedad78fbeU, 0xbd81815136f2c2e2U, 0xc0f3db3d5344dcd5U, 0x3c482451b4f5d11fU,
  0x1de324ae01dfde66U, 0x1d04b660d51c290bU, 0xcc071552a6a9bb5aU, 0x5e11e65131e4b433U,
  0xc2eacd576f50dae8U, 0x72c939cb81e8c75dU, 0xffe63581003fd7edU, 0x23f1997fc4191f0aU,
  0xf317efb6dad818e1U, 0xe26cd52019f5f83dU, 0xfbfae8563c1803a3U, 0x21ee25f3a4fe0c2aU,
  0xd80c18ef0541deacU, 0x1100dd3feef9240cU, 0xbeda0000e4c1U, 0xbb13000103a0U,
  0x33f8fffffbd9U, 0x8697fffffd6aU, 0x60a000006fe6U, 0x321300006958U,
  0xffffff81ffff4f8bU, 0xa560000b58dU, 0x52a0ffffff34U, 0x7df00000e49U,
  0x1d6fffffc4afU, 0x6c010000e99fU, 0x9e3600000c4eU, 0x7f550000a56cU,
  0x21d9fffff31fU, 0xffff433fffffe76cU, 0x14aa500003875U, 0x8a000007361U,
  0xfffffa8a00017ef0U, 0xffffb706000261d8U, 0xffff968a0000224eU, 0x14e6800000204U,
  0x130ddfffff93fU, 0xffff9d9c000003cfU, 0xfdff1e0a810aeaf4U, 0x3050075f2fe060bU,
  0x104f86305fdf200U, 0x8601020019192233U, 0x28f1fcf200f20c16U, 0x100bfe0010fbdc02U,
  0x65bf3134000002dbU, 0x2d13000ef3080b11U, 0xb681504b41a2900U, 0xfa12eb24f82e00e8U,
  0x10f6cfffcdf60015U, 0xc6beffc10181feecU, 0x1e25143617041db6U, 0x3a0500faf2ff3ce9U,
  0xe70814f106811400U, 0xf6051b0e131f07d7U, 0xd14fd10f9eeff01U, 0x635b61514dd0335U,
  0xf80114f700000103U, 0xfcf5001302f80b3aU, 0xf902f9fdfef60400U, 0xfffefefafbfceefaU,
  0x81fafc0afdca3bdbU, 0x40406fecffe0202U, 0xf801e3031c66fa04U, 0x5fa00bdf302fb02U,
  0x2fd0439ff040200U, 0x57fcfdfc4d0329fdU, 0xf30bfc0a03060efaU, 0xfbfc01fffb0081fbU,
  0xf1b35ed00063b0aU, 0xed8100164a091ee1U, 0x2df010031be41200U, 0xea0a1bf0071dfdf3U,
  0xeca140a03ca312dU, 0x2c1c321939eef41eU, 0x8e8d73e0a0bb3d8U, 0x448100f74ae9e42eU,
  0xe42209f1f127ff00U, 0xf80ff720fdf3f116U, 0xebbaf8fc022ad05aU, 0xd1e9cae5ca0dedf4U,
  0x144c207f0dfeeba0U, 0x744b00f1dc04040aU, 0x2df905f440051300U, 0xb443d1803311314U,
  0x241b0cfde5e0eafaU, 0x2c46164cebf50649U, 0xffffb901ffffe0ebU, 0x54d400006b66U,
  0xfffff670ffffec3dU, 0xfffff20900008f54U, 0xd3cb067f05ed1c3dU, 0xa0300fe7f0a05f9U,
  0xf61ccf12edd8125U, 0xf840ebd604f8df7fU, 0xa72aa704fa7fa70bU, 0xfb0f7ff1fc0516U,
  0xaeff45187f0b3fedU, 0xd2e81b04fd0f7ff0U, 0xe2f3f8d40e060d7fU, 0x3144b311a0e81U,
  0xea0303197febf7d2U, 0xc6f5062da0f60881U, 0xdbeefbe91807057fU, 0x43e577151a8146f9U,
  0x716f8fb7ff6dbc3U, 0xda31e4e909fc7ffcU, 0xb64fa2e70e0381fdU, 0xf7c24e0ae6027f0eU,
  0x56e6290b0c811007U, 0x54263aa5d7eb0d81U, 0xf81ecc2ffbfbd381U, 0x90809810500f4faU,
  0x1419f64cfc13e881U, 0x948143f7f8f8dae3U, 0x6aef320c048127f8U, 0xed07f3c37f08f82dU,
  0xef7f580508e9ea0aU, 0xf70d147f0902f431U, 0x6d197f7defd763deU, 0x9e8133faedd72400U,
  0xef01fcf88102ffffU, 0xffec1f81212928d9U, 0xa00f0cf581da01efU, 0xfc161a81ffebf8d3U,
  0xa0cd11b12fa2481U, 0xf334c71809007fe5U, 0xee812ddc02074c0fU, 0xb7d812819e6a537U,
  0x18ea0bc721078119U, 0xa5dff1fdfbf081fdU, 0x96b22ecce0185c7fU, 0x6cb842050208810bU,
  0xfa11ebcc81eaed23U, 0xfefcfd0581e8e7baU, 0xd37f46ab12e0e5fcU, 0x7f2bd3292a1fab95U,
  0xfd09351e187f66d8U, 0xf60803127ffe09f5U, 0x1f3200009fdfU, 0x22be00001a26U,
  0x25660000075fU, 0x8ffffff8deU, 0xd040000037cU, 0x7600000f04U,
  0xfffffd88000008b4U, 0xfffff76b00000229U, 0x319f0000146cU, 0x7c66ffffff0cU,
  0xa4200000e73U, 0xffffff200000244dU, 0xe9f000011faU, 0x2041000094acU,
  0xfffff282fffffe80U, 0x78400000073U, 0x27e5fffffa36U, 0x18c200000a8eU,
  0x14f4000020a7U, 0x8fe00006485U, 0xa67fffffb49U, 0xdc200000963U,
  0xcf20000122fU, 0xaecfffff6f9U, 0x1cfb4a076814fd03U, 0x6d3f2f50906090eU,
  0xf27fe8f793ed07feU, 0x611006ff0af60efcU, 0xfffd2001e7241a11U, 0xf9fc060ef6f6b010U,
  0xb0d4f208110087fU, 0xa08e3c92d067f7cU, 0xe941c9dccccc87fU, 0x8604161daddb4d0fU,
  0x76fbcfd90b7fc804U, 0x1681fbde03de92b3U, 0x120441030d09ffe0U, 0x615f9ee21eb091fU,
  0xf4eaf3e251ff1c97U, 0xeb0406f41ff8cbfcU, 0xed292fffeb0ee804U, 0xfcfc07d008f01732U,
  0xef21e0119efe097eU, 0xdd0dfbfb36eb0805U, 0xe884b60da9cccefeU, 0x981125fd81ef6703U,
  0x30d438ff7ffed310U, 0xf9f5f3d5a62981c4U, 0x8181818172818423U, 0x81227f7f817fa381U,
  0x7f6e7f7f967f7faaU, 0x7f5981812481817fU, 0x7f7f817fd9e37f81U, 0x6c698c7f7f7fb47fU,
  0x122ac608f42f0638U, 0x57fd3fffb920de8U, 0xd60bd30f54c2be3eU, 0x2022c1b4bd80400U,
  0xf2463efc4107d91fU, 0x5f7f021daa500b2U, 0x16da200af119f8cbU, 0x10d4f6042206e607U,
  0xefecdeff6bf315ffU, 0xe43008f838ff1bfbU, 0xe6091e00dbe4d9eeU, 0x13f814dfd92ff60aU,
  0x237de813124a7f48U, 0x1aa1fcf41b2cfd0fU, 0x120a34d779e1c7c2U, 0x157f025227d7bd18U,
  0x7ffaede8e205ec54U, 0x8109e21a2dd4eee6U, 0x9c0fc07fb07fcd8U, 0xdf7f314d7d4f3ebU,
  0xf206f71581f7171fU, 0x70509f2ccf505f9U, 0xba2322fde9d854ebU, 0xfe007fd704d50705U,
  0x31ffff2db2U, 0x17d00002538U, 0x3eb00000d48U, 0x574d00000c58U,
  0x8edd000007d5U, 0x677b000000ccU, 0xfffff935ffffea18U, 0x533600007ea6U,
  0x4ca2000007b2U, 0x29cf000090eaU, 0xfffffdff00000047U, 0x53ea000008a2U,
  0x5e29ffffe50dU, 0x74190000c84dU, 0x32a00000809U, 0xb7fffff850U,
  0x236c00000e56U, 0x2c39ffffe5f4U, 0x371affffcd76U, 0x2160cffffa00fU,
  0x6f0600005b04U, 0xfffffbc600002e1dU, 0xdf800003c78U, 0xfffffd4c0000039aU,
  0xef04ecfcf6eef3deU, 0xeb52f74a5ed47f9cU, 0xf4fcfce303faf6feU, 0xef1112132dfc8f11U,
  0xf100e406f75fcffcU, 0xf905eff8dd4bff6aU, 0xa000e312077f321aU, 0xa2010ef0fe2ff32eU,
  0xe40e22d7020bb620U, 0xed12fdf2fc14e700U, 0xcb47cce21e0820fdU, 0xfd1c1bf233ff46ffU,
  0xde011d2ebb23afffU, 0xbff3eea13fafb10U, 0xefc317f5dfe17fdaU, 0xd201f0f4f7fa0d7eU,
  0xf6e809f41dfdf9f7U, 0xc1eb2d0508e5dd17U, 0xf6ef030406fcac05U, 0x830fa021a0bf5f9U,
  0x9eb0bf81603ebefU, 0xf77f04f000ff2d0cU, 0xbfdf0ebff07090aU, 0x2bfdeef0170106faU,
  0x1503b9040dfafb95U, 0xf6e50ef1e91ad526U, 0x7feda0d07040403U, 0xf8f6121a59ed36fdU,
  0x1600fe001ce38102U, 0x7e007cb18f2fdeaU, 0x10f731f7fd00fc0cU, 0x1d10db26df01fefeU,
  0x30fdcd481d168a0bU, 0xe925f4dfa9d2f21eU, 0x26eaff3d9e32aa11U, 0xe2dfeb7f0604f9f7U,
  0xf9f7eae505e9d6ceU, 0xd60ecde50938fdf7U, 0x8cea41b0dff71817U, 0xf4f2381391bdeeeeU,
  0x94f1a3d37fffa00fU, 0x2d20ef7d4cfcf9f8U, 0x470111cb0d922a14U, 0xdef2dd08d658fa0cU,
  0xd80d274ed91a81cbU, 0xebf726e71617ef0eU, 0xcecbadffcef72ceeU, 0xe10500f35b25ddf7U,
  0x7102ffff7259U, 0xffffd613ffffc4d2U, 0x6b080000378dU, 0xbebc0000acceU,
  0xe11127ec55050d81U, 0x7f66d20802274028U, 0x504dd810408f4eaU, 0xf924fc8381fbff6dU,
  0xb21e833ef0ef581U, 0x51e90381f20af7a1U, 0xee4150af73781ebU, 0xedad67f6901f5bcU,
  0xccdde307810f147eU, 0x57996bf419d881e0U, 0xfe437d81301d0981U, 0x84edccbb0c2e107fU,
  0x4e7fb90703282203U, 0xde41657fd9f3fa38U, 0xdad609b017f0457fU, 0x1bed1a0ff31d81f6U,
  0xf40efc81010fefe2U, 0xcd6e81070f897dd9U, 0x69110daf12d8d97fU, 0xd116f129e9f2de7fU,
  0xbcfe1bff7f02017eU, 0xd1816ae303b90513U, 0xedda38eaf90e1081U, 0xf23d46811a01d2e8U,
  0xf516f1c708fb007fU, 0xe341277ff704ea1bU, 0xae508136c408ab37U, 0x818d403ef1b81f2U,
  0x366cdd040331f181U, 0x81b425eff91a3ef7U, 0xcfdf04932406047fU, 0x62812be75011c5U,
  0x5eb5b681a627458dU, 0x12d8d081180908d7U, 0x42a56a05e13a8105U, 0xcd29bd03f581d5e8U,
  0xe3f310f00d2e7f0eU, 0x94fcd71bef3c1a81U, 0x6313142cfcdae181U, 0x407fa3050d300804U,
  0xdd555381e5ebf8e1U, 0x37b6acbdadfc3581U, 0xb9a538fd0bad81e9U, 0x122a3b68810211b8U,
  0x27f9e00f9a2a097fU, 0x105dc420ff0981e1U, 0xf9e1d67fe2fafc71U, 0xddf4fff57f010171U,
  0x3aa00000053U, 0x26400000cdaU, 0x4d0b00002854U, 0xffffff9400000926U,
  0xfffffd19fffffca0U, 0x4d8000004e6U, 0x46200000e46U, 0xb6b00006a95U,
  0xfffff68800000b28U, 0x1c85fffffe0dU, 0x296ffffff9ffU, 0x28660000240eU,
  0xb0000206aU, 0x114d0000173cU, 0xfffffe2400002439U, 0x11a1000031d0U,
  0x10e00000306U, 0xf2100001853U, 0x3e4fffff8a4U, 0x15fffffffa45U,
  0xfffffc570000024aU, 0xfffffdf0fffffd2bU, 0x135c000004a5U, 0x373000000efU,
  0xba67dc344f66a244U, 0xa1b5de3733a79e46U, 0x32afb64b4c345c60U, 0x87c03fb8bfbfd4d9U,
  0xeed338c0424434f2U, 0xe15208a13d40b133U, 0xb0cbb8ad5e7fa250U, 0x5f9f8a504ec6966eU,
  0x452f8e5a7f5062d6U, 0x81dc4938acbeafcaU, 0xefb25aae52504ca8U, 0x9e5d81bf6359a14bU,
  0xdecada161f4cc91cU, 0xfec0b1222507da24U, 0x1922ca25531f2fbdU, 0xa0561f22e5d3d2e5U,
  0xf7de25e4202124a0U, 0xbf2af5f43020d52cU, 0xa77fac3e69d29262U, 0x81ee88554cbd8e5dU,
  0x4a816b58e152777fU, 0xf7b9608197a5b345U, 0x5cb355ab5b6a48a4U, 0xab6069a75f589b59U,
  0x81b081817fc0817fU, 0x6cea817f7f81817fU, 0x7f3f7f7fd77f7fc3U, 0x17de7f328181817fU,
  0x7f817f817f7f7f81U, 0x817ff5817f7f817fU, 0xbfd0c02a3ce5a143U, 0x12e9d03638c6cc3fU,
  0x3e2d4637e43836bcU, 0xc7f3625cfbebe4bU, 0x35ca39d2282e48beU, 0xcc36bdc04334c032U,
  0xd645c71b3bbed025U, 0xaf5aab322e0bab28U, 0x19b5f822db263b44U, 0x66d21fb0cccbcfecU,
  0xa7d320eb292a1db1U, 0xbb3115ea312dd129U, 0xbcbdbcc056c9b045U, 0x237fd34741b2b73aU,
  0x451fee37d23e34d6U, 0x7de73d1ac2a9bcd1U, 0x97bd3cd03b343fccU, 0xcb4333ad3a42c239U,
  0xe0edeb1b2ee2c929U, 0x19430a2023bfe20eU, 0x281f0121dc1c18d4U, 0x483b2620e5c6e3e8U,
  0xc5e121ef170e2016U, 0xf51a0ac0191be61dU, 0x90c300002b7dU, 0xc8a7fffff97eU,
  0x21b48000011c3U, 0x10033fffff286U, 0x7ea9000018f6U, 0xcb000005388U,
  0x7e0c000000f8U, 0xfffff3c500000923U, 0x59fffffb63U, 0xfffff3a20000074dU,
  0xffffefff00000247U, 0xffffb56d000005e0U, 0xd5d4ffffe8e0U, 0x1d4740001d370U,
  0x12e700000b43U, 0xfffffa7f00000217U, 0xfffffd230000591dU, 0x2bac0001492fU,
  0x4ae00010574U, 0xffffffbc0000a70aU, 0xdb5900000e89U, 0x4b1fffff671U,
  0xffffff520000b873U, 0xb036000010abU, 0x6011f21305defeedU, 0x2ebff10fb3017aeU,
  0x6610f53e0107f81dU, 0xe112ec12fb034dfdU, 0xfb112c15d1062df6U, 0xc081131d2516d6b1U,
  0x360512cc021810d0U, 0xfb02ece8db05e8ccU, 0xeee9f51303e37ff6U, 0x14cfb9dd100ad814U,
  0x20dd9edfd14f3e1U, 0x113f311147fe5f1U, 0xeaf4ceffd3e6ebe1U, 0x10e520181a070ef6U,
  0x81fdfaf5e5dbeef2U, 0xf905de06fb0951f4U, 0xf8110718030823f5U, 0x108f1eff1f5ffc9U,
  0xc06f3e90236f6U, 0xfefffc8126fff8efU, 0xefffedff9f301fbU, 0x2fe0af00c04f4fcU,
  0xf3261af0150f0504U, 0x1707040be3180b13U, 0xe4171f140d03e628U, 0xaeffa05e2f30addU,
  0x44030cee09abf917U, 0x210bd162dfbdbf1U, 0x1909251c8116dc13U, 0xfb03d800ee0a1cf8U,
  0xaff0dfa35df0c13U, 0x2ff1b060722090bU, 0xe1f905f7022219d7U, 0xfdf5edfedd03U,
  0xa0e06fd15fd8132U, 0x3b60202fd1037b6U, 0xf60503f7031bfc18U, 0x6fb0eeefcfff704U,
  0xe31c040a0d7ff2feU, 0x8f7fdf8fb110409U, 0xd49ea0fde1afb0bU, 0xec0ef0f801fbfb00U,
  0x3df041ec1efce7cfU, 0xecebfb587ff81f04U, 0x48ee09e9e4faebfaU, 0x6efefefd8cacfdfU,
  0xef70bc1408ea0e0eU, 0x1217fb08b0cc1e21U, 0x220efd0004f6d6d4U, 0xafcef252916d3f4U,
  0xf4f822d801e53bedU, 0x1f027ffb2bf2fef4U, 0x181544cda3e800feU, 0x1e12210bed6bf710U,
  0xf509ee142bf508ebU, 0x121e16c847fbd836U, 0xf1f30c33f8d715ebU, 0xe6100512ed251e0dU,
  0xfa781f5a93412fdU, 0xe2ec1df50f2417edU, 0xfd10632581e0fbdeU, 0xed9b6310c102deeU,
  0x202fe62ce134d218U, 0xcf2b2b36dd0d8fcfU, 0xd512e40bf819acd7U, 0xd62e170c09f0b8e1U,
  0xee97c23045f44bf8U, 0xaf103cfc16035a01U, 0xfb0593ad090f4615U, 0x9f25e624ef0de60fU,
  0x81fa183a90df003eU, 0x3233acf0bf663807U, 0x620506fe09f8fb75U, 0xf2fa0102e1cffe1dU,
  0x130bf5fc020306efU, 0xfcf102f8fd0519f4U, 0xffeffbe507fabef6U, 0x33cf9cb8107c4e7U,
  0xfafb1106020e09U, 0xf90507fc21fa0e06U, 0xfc0ef213020b0c08U, 0x518ff0d7f0502ffU,
  0xf303ff1318d50306U, 0xf6faf9080608fdf4U, 0xa430214daf34dc2fU, 0x2646edd065e9bbe9U,
  0xeb66171633df1b2dU, 0x6b5dc92f8de2401dU, 0x1d4929d7db812c01U, 0xcc020a00014d19c5U,
  0xc35b0844f9b3c518U, 0x5f81254bdfe62525U, 0xf23aec88892f455bU, 0xce4933383a0c2298U,
  0xe6f395ea743d3324U, 0x3bf4dd01d26c4154U, 0x21f5ffff9d59U, 0xffffe0d400002d29U,
  0xffffd5f0fffffc42U, 0xffff416fffffb095U, 0x514bffffdbabU, 0xffffea99000075d2U,
  0xffff9782ffffe72dU, 0xffff70c200009923U, 0x735053d577fd81dU, 0xe6d46af5b3de2b55U,
  0xf8324e4913f47fd3U, 0xb819d6c44a1c2826U, 0x69ffe58101fef911U, 0xd82aa2217c3d97d8U,
  0xf0e1f1ab17ec5e7fU, 0xccc034c4ba44f709U, 0x23f018e326f42bc9U, 0x142781020beae0eaU,
  0x14ff8fd3f0ece37fU, 0x1e09fd03d59d3401U, 0xf3f70d1658e6a981U, 0x200ce932cbcd9b95U,
  0x219d814e5ed51730U, 0xf973af5faf4a63cU, 0xa2dc150eebfce42aU, 0x1dfe0d8108a120f7U,
  0xe3f90812700fd044U, 0xdca202fd1e0d847fU, 0xe5303c54f0f8f981U, 0x6fd8cf3119eafa00U,
  0x54d918e65b819a5bU, 0xe41858b4f225db40U, 0x5dde209010eda4dU, 0x2a13edd1eb8101f2U,
  0xdceb335e961eb3b5U, 0x19ebeefce37febddU, 0xadf8bd27ea8b27a7U, 0x1e77fe9edfc5b31U,
  0xdec0d25629540b7fU, 0x50f89489bb86c4d9U, 0x37f948e1220f1ca8U, 0xe7e6e7e9007f1cf2U,
  0x490d33d0fbddf20fU, 0xf75c3ae622ea7f05U, 0xcc42d7ff4ad37f0eU, 0x900eb9dc41cc501eU,
  0x4f2ef0a1b06f230U, 0x18f61781eeb10d03U, 0xbc1c1ffcd3ebb27bU, 0xf2e0903ec81fde1U,
  0x280626e2407f194cU, 0xd79d4304dfec0624U, 0x7ff8fde3e5041456U, 0x3e3b25420fc00329U,
  0x2d0381f812ee1cedU, 0x430105d3fcdad108U, 0x6100b2fe111b225U, 0xe7f44bf51471723U,
  0xf521140702ddae81U, 0x51150ffc05b10feeU, 0x6e42604dc341be2U, 0xe85e9f2aec2e9481U,
  0xc07cd351de82e9dU, 0xf5f70298117fcd2dU, 0x7f1ae8f6440105f5U, 0x34e4f8823ee6ef32U,
  0xf528d540cf202e05U, 0xf9ab2a030fdd2781U, 0x13f5b6ffda81ede6U, 0x14f7e1e2e00af5f8U,
  0x46dbf20d31d3047fU, 0x894faf1f4e5fcfbU, 0x1eef53f4191e009cU, 0xede80dfff97fdc13U,
  0xa9bf4eaee57fcc19U, 0x24f0dfb1ceed49cU, 0x85813d2d811201adU, 0xc5010adb5c7b6baU,
  0xccf2d20a6b00ce07U, 0xe8c27fc011c71b86U, 0x4a1722ec05f21991U, 0xe320200b207f10cdU,
  0x81e6bfddf27015f5U, 0x3219ab2cf8c04204U, 0x5f05b71d17f7e91cU, 0x1719317f0031ea06U,
  0x7f48bed007efeedfU, 0x1f0c0b10eb1e5dd7U, 0x1802f0f608231144U, 0xdcec037ffd10e3ffU,
  0xcad60b2781c5dd01U, 0x3fbef16c803c6d7U, 0xad319e02505232bU, 0xe6d02afe814ecfb0U,
  0xb1ed19d15fc97f11U, 0x2b45e3eb290848edU, 0x38c1196941b3dc1aU, 0xe981e0dc01fdcad1U,
  0x9705e2d68b9d24d7U, 0xec2781c61ef8ea02U, 0x8873decde17f2e3U, 0xd9397fc520c9a716U,
  0x44ce16dbfb0bdc1bU, 0xea5b811c2720ca09U, 0x14cbf6ea8121eb12U, 0x480757faef10bbfeU,
  0x491b017b531cef29U, 0xf37f33015b47f2c1U, 0xbcf07fd9b639fd0cU, 0xda2bec66fc3ad611U,
  0x14c4b83c131c0d0eU, 0xddfa131e7f05ef2aU, 0xc916c022ef6c2bd6U, 0x10814a010c1213d3U,
  0xe4081ed181cbdc25U, 0x1c33012f1bf53b0eU, 0x1f000d03b9e0dfe2U, 0xe80d7f1022020221U,
  0x81f7d4edf8f604e8U, 0xeeefca091014c5e3U, 0x7f1ee9082c133121U, 0x1aebe469e317e40fU,
  0xd4ffb1ddc728f34dU, 0x243de82a1181ebefU, 0x2506d38a27247c7fU, 0xa909db93b55c2217U,
  0x4fbf815e71fe34cU, 0x19f5f322e6810dd4U, 0x2ef7151307f5109aU, 0xf5fc05db217f0908U,
  0xe9b007fc3d644bb8U, 0xa4c2063cf066d17fU, 0x7f3a1ae345b1b3d1U, 0xb8da13100021f746U,
  0x94e0a5fe8179198fU, 0x1634daf03730a10fU, 0xa547db3a45e96736U, 0xef4281fb0fd9633eU,
  0x8107180ee0fd30ffU, 0x3d00cce8b7d0d8eeU, 0xa6f507befec6fd81U, 0x4b78291740b8efabU,
  0x1ae0df0c6de9bbdbU, 0x581905dad1b5079U, 0xdb00ecff71ed0013U, 0xa7e381f8c2fe3db5U,
  0x81edd6253ef20a33U, 0xd323eb02390908feU, 0xf3f6e33d8128ea06U, 0x1c660803c56d0f26U,
  0x71c19d14702e2206U, 0x17c3c3e228258126U, 0x36fb31193be7db81U, 0x3de9fb2e0fa6d7d9U,
  0x53d03db0fe300dbU, 0x3e07f20c818ff29U, 0x1632d3ce00e6e77fU, 0x46f3029d23a12f0aU,
  0xbde6cbb47fdcd5f7U, 0xede0c30febfaf8b4U, 0x82f50dee52c9e827U, 0xb56afc002d018126U,
  0xd4cef50e2c09f47fU, 0x46fa0e0d4e8bf435U, 0xef80af2063ed104U, 0xfadf7fede4caeb4cU,
  0xe1cb5c24223b56e8U, 0xf700bb7f3566043cU, 0xfae50ee467c6e581U, 0x1df99a1826996fdaU,
  0xbaf8747c10e9cd18U, 0xff81f7cbadefa514U, 0xd0daffb241ea6a4bU, 0xd73f4baccb7ffbe5U,
  0x21f3f500ed1c3b7fU, 0xb0f5f4e1df58121eU, 0x81db0130d7e8ee0dU, 0xd205e6080608cbf8U,
  0x553df7f2dcdcd702U, 0xf0261f1cc8f07fffU, 0xcbd8eaf5fa22057fU, 0xfdfd3d0cfbad0404U,
  0x3dc56d07b7e00b96U, 0x500281764101b7daU, 0x81e4f923d3b3d27cU, 0xe83f0621b7d0f8fbU,
  0x75c525cd991ee611U, 0x2d275ec72d7e8146U, 0xd17ff40d56ce2108U, 0x1115fe1330c64f4dU,
  0x9f88113eef30b0dU, 0xfa0bf91f01f401f3U, 0x7f0bdc035c393145U, 0x1422692119a11d22U,
  0x211fc1ececdbe87fU, 0x1df3011608911af2U, 0x1ff9437f264125e3U, 0xc12a5ff60af0a5dbU,
  0xff13fd10121ff7a7U, 0xcaf41af7137fe40aU, 0x55f00003ab5U, 0xfffffdda0000148dU,
  0x195b0000159fU, 0x3b4e00003c30U, 0x5564fffff7eaU, 0x14b200001907U,
  0xb4da000016e4U, 0xfffff45dfffffe15U, 0x333c00002306U, 0xffffffb1000006caU,
  0x5488fffffb37U, 0x101200001c49U, 0x164b00001fe6U, 0x153200001fa8U,
  0xa6fffffeceU, 0x287900001530U, 0x13d700003698U, 0xffffffa300004457U,
  0x2faf00004a68U, 0x19400000041eU, 0x346f0000044fU, 0x160500002dcfU,
  0x57a200001237U, 0xeb70000522aU, 0xe780000219cU, 0xfffffd9800000259U,
  0x16ae00004145U, 0x33980000239aU, 0x1dc5ffffffa6U, 0xdec00001329U,
  0x20cf00002d63U, 0x456500001328U, 0x1206000017c4U, 0xfffff93e000028d0U,
  0x12bb000082f7U, 0xfffff60400002ee2U, 0xd22fffffc58U, 0x127b00000b8aU,
  0x3ec800006448U, 0xfffff38c00004135U, 0xffffeacb00002551U, 0x4dfffff084U,
  0x167d000020d0U, 0x1f1100002179U, 0x18a200002256U, 0xc3200002775U,
  0x5a5900004d6dU, 0x343effffdd8dU, 0xc8c416ef6fea00eeU, 0x40fcf80bf968fa12U,
  0xde1c014904d90803U, 0x2d181d2035250d03U, 0xe4ba2f02ed0b20f7U, 0xfa1ebeb7131d0d0fU,
  0x5f20332fdf9e8f2U, 0x1a7ffd1bd826dcfcU, 0xf5fb2446c716f7edU, 0x4721860f083de24aU,
  0xe9e42028fc7f19ffU, 0x20014004eef0123U, 0x81f9f6320af70cccU, 0x6401f7fcfa810c2eU,
  0x177f9c55f501d914U, 0xdd12d22f09be7c5U, 0x81bd7fe4f9f3116dU, 0xd47f812f14e2e806U,
  0x4020c02907323bb2U, 0xe4ff247f5aa2241fU, 0x27eadf28fb9adc2aU, 0x47dbc1defc63d6d2U,
  0xd3352df113f244bdU, 0x8113df8149f73fe4U, 0x16280a07afe8f8faU, 0x7f2f1033e0afe04U,
  0xe01c1aff15f408f6U, 0xae2f04f50d0ae604U, 0xebec050de4091727U, 0x19e61a12f2ff08U,
  0xcf80707fd09f703U, 0xf008ef0cfcfd2ff7U, 0xe929f99bc921f1e5U, 0xc02f20815f9e886U,
  0x211f14d300de28f0U, 0xd8030815f61bf5e3U, 0xd5f7efab1cf240d6U, 0x3cf9e5dceeca6a22U,
  0x13e38138f2a0e37fU, 0x1dcf3f2bfc81d9e0U, 0x2fdafa4b01cfaf81U, 0xe0f2c72cf6025ceaU,
  0xefd30c3019fa257fU, 0x7f11a9d07f840423U, 0x2de97fde79a2dcbcU, 0x2e7fbfd50b21c9deU,
  0x2fa3267f01032c7fU, 0xc320636a2496d3d9U, 0x197f81d47f7f7f7fU, 0x7f7f7f94810d817fU,
  0x7fbd1b7f81d481f2U, 0x7f817f7f81ce7f7fU, 0x6c5cd2817f8b81fbU, 0x7f938e7f7f7f8181U,
  0x817f7f8181817ff2U, 0xb9b2e38c29d2817fU, 0x7f81947f7f8e7f7fU, 0x7fb67f8181817fe7U,
  0x87e681dc7f467fceU, 0x6f8181e581e78181U, 0x33ec457ffede46e5U, 0xfaf2dde2f7f91c0dU,
  0x99f84d1b2481e495U, 0x9482d074275dbe3U, 0xdb00341fa7fd27fU, 0xd6f1d9ec03eb1923U,
  0xf4a6fefd2cf9124fU, 0xdbff7ffe9d7f1016U, 0xc66fa0d65b2e491U, 0xfdd7fbde3208cbfbU,
  0xc57f29a6192e13d0U, 0x191b2291f37fea1fU, 0x222a0af9b9e7d0f8U, 0x4fbdf1a3bdd0e07U,
  0xe4f720f81905fd28U, 0xb73405f80406ef02U, 0x13d8d81fe1eb42dbU, 0xfdf5b61114de0b09U,
  0x2e5030bfe0dfef3U, 0x1403ebf521ca2a02U, 0xece40ecbca1bf6faU, 0xb3cf20c12fce381U,
  0x9ed1a0f0ed61415U, 0xe0f9240ff41513fcU, 0x49ea43d215e4f0e3U, 0xf2eefc7ff03afb0bU,
  0x93d155ea1ad8d7ffU, 0xff3728093b63d6d4U, 0xff81e0e1e6ed3e91U, 0xcff4d7f131f4f12cU,
  0x331fb0f81c3d1dc0U, 0x4efbf1ebf4f1612U, 0x11bae5f8c681e616U, 0xffc714cdf9dfdf1dU,
  0x7fac42090c121f2aU, 0x522ce973edde7a0dU, 0x13d8420c19e6d7f3U, 0xf0f7cb0e0c07ff09U,
  0x4eb03eb110dfbd0U, 0x1e2300fa38ff11feU, 0xcd5e2f9e7102d17U, 0x3f2e5c31d18f409U,
  0xf9e708faff01eaf9U, 0xe2022aebde0acdfdU, 0xeb2b0b31c828fbf4U, 0x1cf8050917ead521U,
  0xf32839ecf4592adcU, 0xcff5eb04edfd0d67U, 0xffffd70d00002c49U, 0xd2b100000ba3U,
  0xfffff191fffff7b1U, 0xfffff6f8ffffc603U, 0xfffffe12ffffee56U, 0xfffff78d00000ef5U,
  0xffffe30dfffffae7U, 0xffffcf60000015e8U, 0x4888fffff968U, 0x95b00006deaU,
  0xfffff1bcfffffe76U, 0x26cfffffde1U, 0xfffff907000041ebU, 0xfffff36bfffffdebU,
  0xffffd8ceffffe03bU, 0xffffdc4200000eb9U, 0xfffff97dfffff8bbU, 0x4490fffffc95U,
  0xfffff26d000000e0U, 0xfffffb9100004b5fU, 0x776000001e0U, 0xffffda88ffffd591U,
  0xf995ffffd7b7U, 0x43c6fffffc7cU, 0xffffccc000005a7cU, 0x2375fffffe8dU,
  0xffffff7a0000160cU, 0x4d4fffff1c0U, 0x808ffffc6a4U, 0xffffec4300000a61U,
  0xfffffa24ffffffb0U, 0xfffffb28ffffcb07U, 0x4c8600000850U, 0x548700007920U,
  0xfffffd0bffffc74eU, 0xfffffa8cffffee1fU, 0x1a810000cf82U, 0xfffffd92000002dbU,
  0x701400005371U, 0xffffccc9ffffff65U, 0xffffb8a6000000e1U, 0xfffff06e000003b1U,
  0xffffffe100000268U, 0x2c3fffffb24U, 0xfffff206000006beU, 0x26300000194U,
  0x11bfffffae1U, 0xd41d0000053bU, 0xe1011d230f0009dbU, 0x49f509ee14102325U,
  0xe506cb5a00fbf2f1U, 0x432b0002ade3d6f4U, 0xe701f010fc130a7dU, 0x2fef50ee406fedbU,
  0xe808e5d601fe24e7U, 0xf1db39c4ffe72615U, 0xaf5040aec280919U, 0xfb0081f8121ef6daU,
  0xd23ed17e2d0f515U, 0x6e0932fbed11f0dfU, 0xd5f2b4083a459864U, 0xaee9dc18161c9d14U,
  0x30e28bc230eacaceU, 0x401241dc0fa5d363U, 0x13c07dbffba1527U, 0x323f2ac81531abe9U,
  0xef20bb3fc1f7e855U, 0xb5fab94489e6211bU, 0xfcfa221a252f9b0dU, 0xdeff511f2dda2f81U,
  0x68e8309746df11ffU, 0xf0ddc1fe01cc15bdU, 0xea151505cff4142fU, 0xff1f1a154434fcffU,
  0xcbfed201e1feca1eU, 0xb67ff7f73ad80715U, 0xe41b60193afd9f10U, 0x7dcd1da2a150edcU,
  0x9fbf804eabf4631U, 0x424ff5011b082adaU, 0xfff1e5fbb4f8c10aU, 0x230e1af7fce311eeU,
  0xf52108f405171a19U, 0x400509e3d016f21fU, 0xf101e02838be152fU, 0xf70e080d03083a13U,
  0x15eff8df1c08e027U, 0x9499a26d1f7f3dfU, 0x6dbf3d945ef2407U, 0xb628fdfd07368c04U,
  0xe9fc969c0e252085U, 0xf3110e0d3dd8f715U, 0x1404423e27df96d1U, 0xdd44e506a1e31dbdU,
  0xf14112c7f22db0bU, 0xf223e9d2efe5d02aU, 0xfcc2f000ae0911f7U, 0x2f9561d0808d1ecU,
  0x223415e2ff13e94fU, 0xf6eaadfd170e1510U, 0xe428f32d25134bebU, 0xe6041238e8b62511U,
  0xe32cd3f9c70f5fffU, 0x161e1e1a433bc8f5U, 0x3e330dfc4058145U, 0xd27390b4acc021cU,
  0xeef5cd37d3710126U, 0xcd0a34d70a08f96fU, 0x4d030e09fbe81cfbU, 0x52b10fae606081aU,
  0xc3def6e9e9fd0edfU, 0x1b41162e380d030aU, 0x4f4e0c6fe01e0d9U, 0x507f905000de6e4U,
  0xec09f2e5ffc9f20aU, 0xdeec0ecd04d7d5fdU, 0x19210aff27f50fffU, 0x31150a0cefef0212U,
  0xfaf70500281ae8f9U, 0xc0fac8dc81ffe802U, 0x23ecf1c3c729ebd0U, 0xcf0fe231c8d229d2U,
  0x20d41d21f11e8bfeU, 0xf011103a2ce20c65U, 0x4b3be02403bf02f9U, 0x810600d6d7bfcbbaU,
  0xd1120ef3f3074812U, 0x14e76a23200e1035U, 0x2ea25da011c636aU, 0xf9f539c8fe3dc427U,
  0xd116350bb527c6d6U, 0x21f908b5fb9e0532U, 0xfaf7f9f0e214160cU, 0xf0fcaeff3f6e30fU,
  0x7d60009fff5f004U, 0xf110e17e4ebe8e8U, 0x1edbe70609fdfff7U, 0x2cf1f80518f0f2f7U,
  0xcffaf8d7ef0419faU, 0xf0fa0afbfeeaf514U, 0xb09eceff91014c1U, 0x4e7091c11f5e2f5U,
  0x20a7fe60115efeaU, 0x1fff9f003f4d8fdU, 0x2a0aeed5f89922a4U, 0x442250339e354f5U,
  0xa8f6010418d63fc3U, 0xe7f884250a27f2f9U, 0xfaa707f7891d150dU, 0xcd34d4fba70b5734U,
  0x1bec4faf2ffb0de6U, 0xfa39c4100ae40e04U, 0x39232826d7012b0eU, 0xd9e8abc461260dcdU,
  0xd5de0981fd20f4e6U, 0xe5cbe71decf819d6U, 0x1a28081fd4c8cd48U, 0x110f18d0211de20eU,
  0xca0510f0e62724eaU, 0x18df07e7ea403227U, 0x1acc59efdb1bf3fbU, 0xbc280000c101fc11U,
  0x40fd18ef3200ebc2U, 0x321d27f70720e9e1U, 0xe220101759197f51U, 0x211121d55d31cfcU,
  0xcceb17eff8090a34U, 0x823cf10fddd3ab1U, 0xe41291492cef2528U, 0xdb1123ecf81a32eeU,
  0xe9e4f0980df64529U, 0x32fc092b49b6ceb0U, 0xeb01b7690023f0fdU, 0x8cedadfd92447deU,
  0xf40f02eefeccf3dbU, 0x36e7020bc0e265e4U, 0x4330fb1e3628281fU, 0x24073cffdf91dde4U,
  0xee7fbe4ddfb30b10U, 0x82b32356e3460bd2U, 0xf03002f93aec1725U, 0x31905f6eae8e9f9U,
  0x1140213f8be07fcU, 0x2110a0eedfbdbdaU, 0xfdeefb06190a05ebU, 0xf8f9e52dd3471908U,
  0x10fa0f07cefcff81U, 0xefbfd061214eee1U, 0x1916f9231efa2bc8U, 0x4c9e3090712f7c5U,
  0xecee0c01385a0e17U, 0xfbe800edf309f900U, 0xcf342061627ebe6U, 0xf9d8f43f04ee1b7fU,
  0xe8d5242a70f90109U, 0xf93b0ea1e41b0cf7U, 0xdff0d17e3f7ef03U, 0x1c131a23140fe9d1U,
  0xdce307ea12d2f020U, 0xe508ec15242bd72dU, 0xeee8fe140df803fcU, 0xb90d0c0503b9fdfaU,
  0xf9ebf0f617342c0cU, 0x2508e5e93ae91708U, 0x130804151cd9121cU, 0xf005ff0c051107f2U,
  0x90bf7fa00e1c60bU, 0xeefdc4f1eb031314U, 0x1cf1f40a211b0602U, 0x81ff02072f1a2bf3U,
  0xb14f8e5f3261118U, 0xfff1202f40c0bfbU, 0xe70c160ed2f1f1f6U, 0x80e0eda19fe12f1U,
  0xf3fc081525f1e41fU, 0x3031713f20df5fbU, 0xf9ed00254d1ebd86U, 0xfa6f741eeccfaf7U,
  0x32dee723f9fb43U, 0xffede9c3fc4701b1U, 0xfcf71525ae081f03U, 0x453a53f0edfa110aU,
  0xf636eade35fb0a81U, 0xdfa0318343a12e8U, 0xadcb42fe25f20a05U, 0xe8550212280ae8abU,
  0x14320f3e161d1c42U, 0xeefd0404142e4c1eU, 0xe702351c041c0f27U, 0xf808e6aef0182efbU,
  0x2aa00611fa24073bU, 0xcac925fc070631ffU, 0xc1f8c61c031be1f6U, 0xfed225f637032edeU,
  0x932a9d12fcdae142U, 0xcecfa811911a604U, 0x3f633fa29eeee37U, 0x1a35e1151405211fU,
  0xdd20f8012b20010dU, 0x80b4ac0f718e307U, 0x1db4000003d6U, 0xa0edffffd483U,
  0x99100004766U, 0xe63ffffb19cU, 0xffffbfbd0000b915U, 0x535700006210U,
  0x2811ffffc79dU, 0xffffb7800000761cU, 0xccf6ef095dda26e8U, 0xbc4d810b4cc5601bU,
  0xa07ffc24dfe0291dU, 0x22bd002d91237f6U, 0x7f38f7e4130512c7U, 0xeef702090d4b1727U,
  0x7f1ae2f05218fbdfU, 0xdec8ff0bf8d80f09U, 0x3f091f0e4b37fa11U, 0x381f807fa01d817U,
  0x1601f6f7e02ec21cU, 0xfbe1fd0881e319d8U, 0xd2c924081343ed44U, 0xe8b4e67f1002f03fU,
  0x2c15b71ed7752310U, 0x15460f4eb48dda81U, 0x471b0ad84b111212U, 0x6811ceac4d80026U,
  0x2213f81c5310dfd3U, 0xc1b5d6da045ad27fU, 0x20e510def5f3ceeaU, 0xef3b02f9e41e7f0bU,
  0x81bfefddb213e83eU, 0xc81ece14ef350ed7U, 0xc298d89ec5ead3c3U, 0xd7f27f10f08e9c7U,
  0xe8fa0cc6fad3b4e4U, 0x337f2f3df31e2b26U, 0x7ff5e2041521dc00U, 0x69c7333bf2de0ee9U,
  0x1e7ff7fa27fccd05U, 0xf6e30df7d216a2e0U, 0xdb33fcfc3de9c128U, 0x7f626404e06f392bU,
  0xc95a444c36c8d78fU, 0x46f4462617811061U, 0x5c1760c8d01c2543U, 0xe84e8c1e81b3a990U,
  0x47b3db268123bd31U, 0x65494ce75d41d945U, 0x43e41023bc6eff29U, 0x75d30f03cb7fafe4U,
  0xcbb13818a74d09d2U, 0x252bf181b4f96fe8U, 0xea0bb0f5d911cf61U, 0xbf6ae30bd9e31481U,
  0xf2fbf2efe90df41fU, 0xeb0ae87fec0111f3U, 0xdd30ff27bc211834U, 0xe61088e781ecfdd0U,
  0xdee50808d60de21eU, 0xcadc8106e7d5daf9U, 0xec7c97fa046091aU, 0x4af73e28f32c0a4fU,
  0xe6f7bbe0f6fedf5eU, 0x2a0c051621810dfdU, 0xeb24c3f7a1bed3baU, 0x2806a621038166d2U,
  0xb5ebf217681001f2U, 0xc951813403a12adcU, 0x7f1022fa0913fe34U, 0x3ecb3d0b07f4f60aU,
  0xd3f1def5ec0dad0bU, 0x7f2b51ff11610fe2U, 0xd3a7ed8126d22becU, 0x381e27133fd0ebd8U,
  0xca6f16247524f135U, 0x7f14c21ab6535a83U, 0x5c1c8feeee10739U, 0xff2fed3f5d27fd1U,
  0x26cc872049b70f28U, 0xb1a1901678116f9U, 0xbb2053106810517U, 0xdff113d41aef04f5U,
  0x990e76b7d67fd02dU, 0xb28fb1116d726aeU, 0xebe9370833110fbfU, 0xf2e2e3d8e37ff13dU,
  0x981ee1f1c0af9e0U, 0xfbf804f4ef041ffbU, 0x1243372c6b0568fdU, 0x8f41eed7fd6bffcU,
  0x5d5402d716dcf013U, 0xed11240f0ce97f0fU, 0xb999f73fa91a01b3U, 0xba10e3d1377fa7f2U,
  0xacd209fee2f6ffb7U, 0x1018f2810e002df3U, 0x81c5ac26eceb3b03U, 0x240e56f1302ada66U,
  0x1efe022bdf39cdd8U, 0x7fcc4fd11413c901U, 0xabfdefb57feddb9cU, 0x900129f222a62fb6U,
  0xfb2a29e17fba1afaU, 0xfff8e9fa211d2bfbU, 0x211293388131edfeU, 0x415ee550c7ed18ebU,
  0x14f537c925ec7fd8U, 0xa4a6c9f7d7dbde46U, 0x41d41c31810a2715U, 0x4011081ac208d271U,
  0x81d1eb4fff0105fcU, 0xfad3d4dfecfbdbd0U, 0x7ffbea4e6b562919U, 0xb114584ad9ba5eb6U,
  0xb423487810c4fd0U, 0x22858eb578c6a78aU, 0xdb10d727270ac70aU, 0xfe067ff4dfdd0debU,
  0x15c53e07e4747f91U, 0xfe6be41ae87421ddU, 0x49ff064e81f8fb38U, 0x354e24f64535c031U,
  0x7fe9c1cb4f1208f0U, 0x4343d15d61d28f3U, 0x25ea290da0067f20U, 0x3e2db61836da024eU,
  0xa0aface81042b1cU, 0x25cea0c89b44dec5U, 0x142d7fb5d54e0756U, 0x20e8f73ac4a738ebU,
  0x7f570ec1f9e919f6U, 0xea1645091b10232bU, 0x9eb0cbfbdd52d07U, 0xe42295ee8143e8f7U,
  0xb5cf3f20811fa6e5U, 0x81fde2028e05fc1U, 0x8100e61803fe1f1fU, 0xfd0e0113cde2a8f3U,
  0xe0335e21c622f681U, 0xdafa0af50a411dd1U, 0x3516aaf7470a153aU, 0x3ae3df2811efcfbU,
  0xb6b0f74e2237f1f7U, 0xe2cefb81fcebacf5U, 0xa581e8bb05f0d814U, 0xe95e30ec134106d3U,
  0x735f810816b3fcf3U, 0x14143a3b0f38fff3U, 0x687f3ba5d5d3eef9U, 0x1b07450d240a2602U,
  0x570f2339adddf949U, 0x1573814bf6f1bed3U, 0x9c47c20f1ee55046U, 0xfa52fa7f1ff85800U,
  0xc534fce5b7fa81ccU, 0xef56b4f5d7f0fecaU, 0x7fb5021c5d4a2decU, 0xf8b5eddddcc9dc04U,
  0x393b18e500814709U, 0x3073f95d3233224U, 0x83a6ecd3a4c3ef1cU, 0x11fa47fb82d1aceU,
  0xcbd8f5a3e8ae05deU, 0x811555ef27a1fe79U, 0x10e633564bc49581U, 0x594ce023238ce210U,
  0x1c05c37fd040faf7U, 0xe40e110a0a13fe78U, 0x1220f0d3ccfee0d2U, 0xf4317fe0f912d6d6U,
  0xe4db7ff3611af407U, 0xf78bfae2f8001c15U, 0xd630e92fa609d4b4U, 0x12f8833ea1bc81e8U,
  0x2642011bcdd81c1bU, 0x381381269bf1f18aU, 0xae7e7db04ef357fU, 0xe0390ba7e74a0c09U,
  0x7f0b0c2bdd3e1cffU, 0x9106faf6fca9b4e3U, 0xe381e50e0100f2e4U, 0x14cb82bbf019df84U,
  0xeabb04c5f45aad7fU, 0x15d8fb69f9b1f424U, 0xc4e1f61dc90e3342U, 0xb34e81ea11141efaU,
  0xca0cf3e304ba2e15U, 0x81eae6adec1c4532U, 0xda7ffbb705bf3cd4U, 0xba36d252f345d518U,
  0xee3be8b281dbe608U, 0x3d1301fc122434baU, 0x81e5f81ffbfceef6U, 0xf2030701e8e4c2f7U,
  0x37cbecd0813e0a6aU, 0x3cfd65c116719c07U, 0x1706b00131a92181U, 0x162ae02a01589efdU,
  0xeb4f916ae352318U, 0x47f50b04ea81c031U, 0x175100000902U, 0x512f00003937U,
  0xfffff21400004250U, 0x1c62fffff5cfU, 0xffffe82000006e80U, 0x1cad0000183aU,
  0x385e000030c3U, 0x6a000006afbU, 0x1a490000059bU, 0x1a6800004844U,
  0x9bfffffff7U, 0xfffff5b1000042d2U, 0x1bb0000159fU, 0x19e300002ed5U,
  0x94ce00001457U, 0x49e60000a9a7U, 0xfffff82400001b66U, 0x12980000247cU,
  0x1bbd00000581U, 0xfffffeb4000066deU, 0x2581000029b8U, 0xffffeca00000b32cU,
  0x24690000937fU, 0x4b3b00002b4fU, 0x25080001333cU, 0x2372000002cfU,
  0xfffff962ffffe900U, 0x2859fffff916U, 0x4063fffffd8fU, 0x2964000010c0U,
  0x289f0000280fU, 0x250e000018ceU, 0x1ecd0000262cU, 0xffffed19000017c1U,
  0xffffeae300002c52U, 0x344b00001cddU, 0x1e1c000082d2U, 0xffffeedaffffe58bU,
  0x6c20000277aU, 0xfffffc5400000d01U, 0x415f0000310dU, 0x4669000016f6U,
  0x16e00000eccU, 0x11bbc00004040U, 0x367d000033c7U, 0xfffffd4700002aa2U,
  0x3ea100001b87U, 0x32b000001156U, 0xc43d55147ff8bad3U, 0x728ffdafef3eef3U,
  0xfc7f811a151ed1f6U, 0x15268199e6330f97U, 0x162000e0e9381510U, 0x2f26ad15449e1cefU,
  0x291afd0419eb2eedU, 0x260b02f7e8b3c8a4U, 0x7f1211ff0e40ea4bU, 0xf37f0ff4f90b0f16U,
  0xf5b20f7f12eb19f0U, 0x1cefe3fddcecdcfcU, 0x8c117fd46652817fU, 0x11f5a77f7ff3084aU,
  0x3b50ac7f937f7f0eU, 0xe6c437cfe1bf8c84U, 0x4bd5f8d0a5813ab3U, 0xca8988c5537f7ffcU,
  0x4828e44d582981f1U, 0x4ac2d8d18db92bceU, 0x61ed20b21a1ec74dU, 0x2ede380212007f7bU,
  0x7f9054f8e57f7f3bU, 0x6fd781a081048d81U, 0xf73de40fae1ef6b8U, 0xf9f603e50be8e052U,
  0xed1aa6e0fd06f1f7U, 0x6f03b7fce03598fU, 0xf1228f8df0c0804U, 0xf2eed0c3f951218U,
  0xbfe050106ed07f2U, 0x4202dfd33eb0bbaU, 0x1c02100f18e5ddf8U, 0xfca9f9f8f0f7e20bU,
  0xebd7069905f0f1e4U, 0x5f2e816d2e419ccU, 0x7f0e65cfdf4eb5c3U, 0x255187198c05edd0U,
  0x2a2ca43b59efc1f9U, 0x9a7c4cfcea7ff081U, 0x78e521dcc7a84d81U, 0x48ec7fcc2af8e3bfU,
  0x1d1fcc0e0313580dU, 0x7fdfd57fa4c17c7fU, 0x6b7f237fffe9da4fU, 0x3e108080af668d7U,
  0x24c91efc68ab6dd2U, 0x1edb97ffbe6814fU, 0x294d517f8e3b7f3fU, 0x7f8188bbdb7f7f81U,
  0x7f863f73d282be7fU, 0x818179957fcca2a9U, 0x7fa1817f7f6b7fa1U, 0x8181e28181619cb4U,
  0x817f7f7f2d4d977fU, 0x9c81ae137f818160U, 0xa49681897f817f81U, 0x7fb87f817f7fa981U,
  0x315b7f3a81d31c7fU, 0x817f1bbe0d7f0a7eU, 0xe425a6c828c7f3caU, 0xf0d6e0053e5e112U,
  0xfbd8b2fc7ff542f6U, 0xbd0feecfefab5fa8U, 0x2dc02fe9f00621a5U, 0x351cc5dd23daf77fU,
  0xbfcbbda08f67307U, 0xcc587fd71510ff60U, 0xa2ef74b6f62f0ed2U, 0xd94b0e19e3f0c0feU,
  0x1840dcd90f44dcb1U, 0xfde85cd30ad44114U, 0x1740d50de80102baU, 0xfee10d1606e4e93fU,
  0xf500aacefe0546fbU, 0x1e163161c028bdefU, 0x6fb26f7d9f2f40eU, 0x251124ff65c3f8f4U,
  0x90fff1eecffe4f1U, 0xfaedfd0f0eef1bafU, 0x1e1910e210ced4fdU, 0xf7acfe0ef10fe715U,
  0xdb0ef6840f11f4f9U, 0xf8ee370baee4d2c1U, 0x1f21e0bae2812074U, 0x22f37fb299eeecbfU,
  0xffd9cd6584f9d007U, 0xf2eee518cb7f95U, 0x2f7fe6ea08191cb3U, 0xd4ba56d7e34df10aU,
  0x1ff7e6d18181f7e0U, 0xcf09e9f92514fcb9U, 0xabe56976e94d23c3U, 0x1b2e015909f5bb15U,
  0x2a7fff0802cca00dU, 0x1af74c2e84ec2db5U, 0x381bd1122ec0cc9U, 0xfd13f00f05eff7f2U,
  0xfa0abecf0d03effaU, 0x12f2d7d00814990cU, 0xe12707deebf5f326U, 0xf1a4801dcd4f916U,
  0xf5000521f403faf6U, 0xfa5508edd60cf1c0U, 0x9fc080523020119U, 0xf645fa2208f50cf1U,
  0xdc2bff4deff5f701U, 0xecf401f8bcef2d2eU, 0x111e800002657U, 0xfffff939ffffef51U,
  0xffffee8d000044aeU, 0xfffff964000003a6U, 0x245400000dbeU, 0xfffffea3ffffe328U,
  0xfffffa9f00000324U, 0xffffd8bf000010bfU, 0xfffffb43ffffee93U, 0x2f07fffffd15U,
  0x46adffffc4edU, 0x1f1ffffff923U, 0x4490000616bU, 0x31e4ffffed7fU,
  0xffff958800001953U, 0x55ac00000b9bU, 0xffffdd66000057d9U, 0xb300000d33U,
  0xfffff78afffffc41U, 0xffffbd1e000003cbU, 0xfffffe6bfffff34cU, 0xffffff35ffffdaacU,
  0xfffff59600007e51U, 0xfffff71f000026e5U, 0x6b2ffffc4f0U, 0xfffffad90000006aU,
  0x43bafffff396U, 0x43adffffea8dU, 0xfffffe0b0000336bU, 0x268000072aeU,
  0xffffff11ffffd99cU, 0xfffffb9f000005b6U, 0x2924fffffc3fU, 0xffffd5b1fffff811U,
  0x943ffffee1fU, 0xfffff7fd0000002cU, 0x1e3fffffa70U, 0xffffd9b2fffffad7U,
  0xfffffbce0000027cU, 0xffffdbab000098ccU, 0xffffcf9dffffee69U, 0x23afffffe9dU,
  0xffffd1db0000e366U, 0xffff85e2ffffdad9U, 0x222fffffe8d5U, 0x726afffff99fU,
  0xfffffe3c000000edU, 0xffffff4afffff579U, 0xfde8130cc6eaf3faU, 0x7c9feeb15f80411U,
  0x30af70ee503f6fbU, 0xf60af0397f100007U, 0x3e90806040c0b0eU, 0xff1720f228eafcfeU,
  0x42fbe302f3fffd07U, 0xd7001106c8f6f218U, 0xef100bfc12e5bbbdU, 0xf90714ef10fdcfe8U,
  0xb3e10f0e2023d7efU, 0xe4caec290009f3efU, 0x2b25d753aec5d214U, 0x3eac11dde9e8badeU,
  0xdcf52f20391610b9U, 0x239801eeb208ef36U, 0x6f3f6de05ddf2efU, 0xfaf935f6e3d8f2cfU,
  0x204b10d2d518fb1dU, 0xbb04db30d7e3f4e3U, 0x18e8f4eedbea34c1U, 0x2f4cde08dfcf813bU,
  0x12d300bde91dd9fdU, 0x513d1509170ddf1eU, 0x2f186577ee0e54fcU, 0xfdf30e02f43b81e7U,
  0x2f1a0d0540d6f2fdU, 0xdd310e29d428d117U, 0x2e1297c7db10fa05U, 0x3801d3fcb305d444U,
  0x2902d30e1603f409U, 0xc44d31392114e63dU, 0xe0132cfcd8e523ebU, 0xe42f23683df0a8f8U,
  0x1f3527d8020ced0bU, 0x2bc1c9e9e8ec2c12U, 0xec08fc0d140d1033U, 0x39152318ea02daf2U,
  0xececdf3a2d2ed028U, 0x5d2dff0a0ce10921U, 0x5df030ef0261dceU, 0x9ce22733215eead4U,
  0x8f1811608b7ddcdU, 0xdf0b5ff51d194eb2U, 0xb32aee33f4de2efcU, 0x10d001de42de415U,
  0x1ff60be4d21cd6faU, 0xd806521c110d2913U, 0xf816ef7fe229f259U, 0x20f807b4bf0e82d7U,
  0xe6231ad569f6d114U, 0xed2003f9ed0feef4U, 0x18052424ede9ec48U, 0xf8d4291308e919U,
  0x109f7ec31f42730U, 0x2f4248f51dfb0056U, 0x5108f0d1fbd82b5eU, 0xde7b1b2d0ac6d614U,
  0x2813fa8cf9fee418U, 0xa17f80aec1b2fdcU, 0xdf243f150317f80aU, 0x39d614f9e6f704dfU,
  0x30f113212216dafcU, 0x2ddf091091fcf5ffU, 0x2be2c2fba1eeecf0U, 0xde03ede3efef05f5U,
  0xd1fae2e2f8fcdbe1U, 0x220514330afa14fbU, 0x1b267f1435ef3503U, 0xf72bf5eb4b3c1318U,
  0x78f209d303110208U, 0x13cd03f7cbcd1deaU, 0x331713d9cd0fb735U, 0x14f4f4c6b10fdefeU,
  0x261c30e1ecf90009U, 0x530001307d2040cU, 0xc121b026ee3eed1cU, 0x5e6ecf4012d53efU,
  0xf4e0f0002bff1211U, 0xd0112603fa09ec18U, 0x1f7ff9dac2f6e525U, 0xfef7f7b60fe70df8U,
  0x3e1be208fc17492bU, 0xfb0bed02c534e6d8U, 0xe42d505c14317fe4U, 0x362a07fb07f30adeU,
  0x1520b43e2b07b7c1U, 0x331aecdcfd15401cU, 0x40d3ed1708cdec2cU, 0xe34bb9f744e709dcU,
  0x5b6e91ee50aaec4U, 0xe62ded1d07f91c2fU, 0x32f2f5fdbaaf58b1U, 0xfb3a3d450aeadcf1U,
  0x2e213e02118f3c5U, 0xfef9c3f201ef23e5U, 0xed0141872f290f00U, 0xfd1b1b160a473320U,
  0x2e81d9cef1020cbcU, 0x1d042b1a0937c911U, 0x2214c2e4ba2fe83cU, 0x331902d7242e0c2eU,
  0x27efeceb172c2bc3U, 0xdfeae7ec03d6cd1aU, 0xd9dcfc22dc135105U, 0x17d0efbbfc352b30U,
  0x112a0335def906c4U, 0x4be2f3f8343ff02eU, 0xd2e24e6027e7ac45U, 0xda541a256b063f27U,
  0x51f96dc1bd30bfbU, 0xf32523cd021a2ecdU, 0x3fc803d9028124ddU, 0xf3cc37f14238c133U,
  0xe70c0442a8f63e16U, 0x68cae33a05cd5ff2U, 0xb8bb300cea18f3d3U, 0x756d902ed2e1550U,
  0x17daf2e3fb03dbffU, 0x9ae92fd626ba0a43U, 0xd034daf6e0e9e5ccU, 0xfa00001759281d43U,
  0x1a201107d6ea3ff5U, 0xd84bf32281060909U, 0xed2402fef32600U, 0x1c38e302d712e219U,
  0xc7f404d9dff13b06U, 0xf001fef8c50c21e6U, 0xf1ebd50a03e969d9U, 0xff22e80f3b0bf1U,
  0x6ef8f02133191aedU, 0xef47d13d062bf607U, 0xdce8e41c01fb10afU, 0xeaf227210ae6fedeU,
  0xf3f4f330c2cdfb18U, 0x27e033f707310426U, 0x1007f6f5faff2bf0U, 0x143b2322f701f1c8U,
  0xb21d61b0dec1623U, 0x509f204efe8efb3U, 0xef7fb1a1f27e6e2U, 0x23863ff9fe2affe8U,
  0xfa1d2c7fcac305e5U, 0xd7e120d6cae54b18U, 0xff10e22df1fc13e7U, 0xec12e81ae62b29daU,
  0x2bf204e5070a09f7U, 0x2cb02fb32f615e7U, 0xe70300dd06142cf7U, 0xfe1c13050ad3c20dU,
  0xe205f7def22ddd11U, 0x2613caed12f8d1ecU, 0x31e681f2363bc432U, 0x23e3f118482902ecU,
  0xd2f5edf814d905e4U, 0x25f940cef72d2604U, 0xfdb03a514105ae2U, 0xb1ddf572333e104U,
  0xd8f1ed1909a80aecU, 0xc8251916102a5833U, 0xf91224e7f2fee5daU, 0x1609ea2b0c107fe7U,
  0xd93ccd184718f64bU, 0x3fb1c1701306729U, 0x881f02000308f118U, 0x3dd282cf5acd607U,
  0x3a5ddc12e6fcef52U, 0x37f4e24310ec3327U, 0x1cf1f82cc9f5f6b8U, 0xbedaa9c306fd2cb3U,
  0x922bdb2c0242f9b2U, 0xff0ece17c0ad3cc7U, 0xde0010e4000adad6U, 0xe21f02cfef8162f9U,
  0x26c5301a2537f852U, 0x16492ad21f953ddeU, 0x4c330cbbfce6f52fU, 0x94caa62adfdddb20U,
  0x910ad38514eea11U, 0x1b060f3d2dff0595U, 0xc5fa08ede3f8e4e6U, 0xf20f426d4fe12e3U,
  0xeec910ff01e707b5U, 0xcc240adc0815fc13U, 0x1b20ff814021ef8U, 0x1b1fe4fe12d1baf5U,
  0x15f815008102171bU, 0xf41ae80412f9eb12U, 0x60df80dec0afbf8U, 0x80f00e6f1f8f6dfU,
  0xebd5e4eb35f3f6f5U, 0xff02f0dc36192007U, 0x53b6ffffda97U, 0x2e43ffff9917U,
  0x3036ffffb69dU, 0xffff4e3c0000452fU, 0xffffea6cffffd4e5U, 0x261300003356U,
  0xffffe542fffff2beU, 0x3057fffff53cU, 0xb2eaefc481f668dbU, 0x2becb20f731af7dbU,
  0xa81fe6f803e220edU, 0x8107f017199b3f1cU, 0xfd0b241322060a03U, 0x9e84fe812070b7fU,
  0xdef1d11f9b0eca57U, 0x7f0f54e7fb410427U, 0xe4f5de2d1f0c1bbeU, 0x15f90b81e238f724U,
  0x38b137fd0a3f40efU, 0x2781c828db071bc8U, 0x4a050150a17bd923U, 0x78047f30be21b8d4U,
  0xd2210451d9d77f3cU, 0x3262f7011bea596dU, 0xa91dd91a9516aa15U, 0x30407f0f01482413U,
  0xdb32f5177ee4e607U, 0x2fbcdf6db1e7fcbU, 0x803080881f82cfdU, 0xb17e90fdd08cd0eU,
  0xbd60e557cf1ff6e6U, 0xf6bd7f0aed0c3d93U, 0x2101aad9cf813b59U, 0x5bd06e39d4ca5fecU,
  0x5fc810bfef5f605U, 0x1006fe1802110d10U, 0xb681202cf34f0515U, 0xd4e2abfe302ecf08U,
  0x225be20aaff41781U, 0xc5181219fc75f498U, 0x582cfa447f5653faU, 0x95162c26cfd8fbc4U,
  0x11cdeac00dff8bcfU, 0xd94228fbd61ff081U, 0x43351d39343c2f06U, 0x1b027f0beae7172aU,
  0xd981217c015420fdU, 0x3e1029f0ec5b5U, 0xb1d810bd5c3e54dU, 0x300fd019f9e813d1U,
  0x7914200da658f623U, 0x5f507f7f063ab741U, 0x2b77ecc07fdf24eaU, 0xe3f9e4073de960ffU,
  0x36e9ec6681383a11U, 0x35c40ad0b7ba1aedU, 0xe10e7f1ed00b3784U, 0xf046edb8df5e26e2U,
  0xc155061d09043615U, 0x1909d501dbfb81f3U, 0xe2c6debf03eeebe6U, 0x51ed7f31def4e68cU,
  0xe3e5f63355fdfdfaU, 0xfbff7ff70ff90038U, 0x1419db7f272f2f25U, 0xd1214af3c9c7f4c6U,
  0x3d07f53a140612edU, 0xf9c1f2e781feccb5U, 0x812800d559d67cdeU, 0x666c273504e32cccU,
  0xdddf03f6c302b4efU, 0x30ed3f381022418U, 0x13f72a4627f6ac81U, 0x3c29f7480d9ad0e8U,
  0x20a40d98f4c9c801U, 0x12548133dc15282eU, 0x51d715410c49eb35U, 0x7fe9e70a1651ddc7U,
  0xb214f2fd0ec30bd8U, 0x813ffc03edc0373cU, 0xef3c24257f0636edU, 0xb4f81a10cfd70a04U,
  0xad3edf0a1dd08f7U, 0xe83ab006e01bce81U, 0xe4131c7fc4007a28U, 0xff2cbf1fecc42c63U,
  0x16ab21e781f575b0U, 0x8405c2517f5c046U, 0xe6fef7e3b3dfef0fU, 0xc34bad03f0f1ef81U,
  0x1ef6000000e9e6f7U, 0x11ff1581feda21eaU, 0xc2eab4b8e108537fU, 0x9a5254bdee6b390cU,
  0xda31ea7f071f5804U, 0xc1b08f12d4c4f9e4U, 0x81dded44dd10f4e9U, 0xd730fbce0323f402U,
  0x81fcb02802bc0fefU, 0xea21c633970dedefU, 0xfa25ff0ab3f5fb0bU, 0xe436ade82412ee81U,
  0xbdbee7fef202d0aU, 0xed6e08f712f92ed4U, 0xe7fffe2009f1ae81U, 0x35250e563db1fcfbU,
  0x60b1a7f3c520304U, 0xb7fc59fcbdeaceacU, 0x25a0a924f781012dU, 0x20fbd64925f6f1d6U,
  0x25f20f2008301b08U, 0x6de2a4ef81fd329fU, 0x63555ef146de05cbU, 0x20347f4db0237856U,
  0x4ac04a5dbfedffcU, 0x2c4c8106cb082224U, 0xec87466d06150556U, 0xfc028e0dc9d9bd81U,
  0x819adb25041dd449U, 0xf41ad5e913b597deU, 0x2cafeb00ec1311efU, 0xceffc16ecf67ff5U,
  0x287fe7dde4c31703U, 0xf580e0603f4f4dfU, 0x16cc7f6e05bc1401U, 0xe5f505b51c34c9e4U,
  0x7f75cdc10d5c4c9dU, 0x8590806f1280d19U, 0xedfd8123e3c81816U, 0xfc22f237c2d9cde0U,
  0xd040f567f220f21U, 0xdd300e0d500ffa97U, 0x1fcbeeedc7136deaU, 0xd3c281f7bb99c0d8U,
  0xdca2fb817ad426d6U, 0x504e652ae6eaeb8aU, 0x3afd21241811fe0fU, 0x1b0981009c0f172aU,
  0xe8590350c9ffebd2U, 0xba06efd7810f09fbU, 0x7f28d9e3fa07d003U, 0x230f4d0d600cb11eU,
  0x34d4050181f2320eU, 0x353d5130dcdea74eU, 0xae62611137f59dcU, 0xef49dd26e4f102c5U,
  0xd9e1d181f0fc465cU, 0xa72d16d5d653fccfU, 0x7f2e0fdff3d41312U, 0x1bf52b22fce943d2U,
  0x1a0ab103f3fee0ffU, 0x432ff781e9b61cd4U, 0x3e43230d15811df6U, 0x11d9f807fbd30ce0U,
  0x819ae92c1d2a2bd3U, 0x619bc0c02279d0aU, 0x51d8ec067f172b09U, 0xa30fb42b36c60ed3U,
  0x2038f1fa07cc08deU, 0xf3d071fbf3f7217fU, 0x2ce6050d1505ecfcU, 0x106fdef81f6ef1aU,
  0x7f5deaac6e0532edU, 0xefd615044a0f49deU, 0xdbcf1e81400827U, 0x490f1e36ce13c4edU,
  0xac0ef2b0ccc8ccfcU, 0xd74122413307197fU, 0xac1bd11cb5e723bfU, 0xf961204b81f343b3U,
  0x25e0984e19812ae1U, 0xfdfcff1af638d6f3U, 0xceba6010f04f67fU, 0x23f0f6520f9afce6U,
  0x8937f0f0aaa457deU, 0x5e10311681e4182dU, 0x8141f338ec5060ceU, 0xd81d236b9ce210c4U,
  0xf8d5e3c2812a77a9U, 0xe9bbf8fe18c90dc3U, 0x117fecd8fad4f70dU, 0xf046161503e8e3f7U,
  0xeb3fc71281fbe2ebU, 0xd315fd108def2bf0U, 0xdac9812f04e80774U, 0xda17f7f0f48523c7U,
  0xf510034ddbccf009U, 0xbd37fc7fbb3112dcU, 0x5abf0f4aac4fe709U, 0xa6197fd9f1e08c30U,
  0x81deeb02e1f3dbc3U, 0x1de8ba85ee3207U, 0xfe81030e3a15e1U, 0x216f014f90cf102U,
  0xe1102aeaf07ffd33U, 0x314f911e0be1de1U, 0xdae9f60ce3f3f30dU, 0xe00ceb7fc013f2e2U,
  0x14cff9b111f15c7fU, 0xbc3d1ddda755d5c9U, 0x12bafffff412U, 0xc9100001d8eU,
  0xffffe7e8ffffefc0U, 0x41f00004ff2U, 0xfffff87700000c63U, 0xfffffede00002752U,
  0x82effffcb07U, 0x254100003cf6U, 0x103a000033e8U, 0xffffdd8fffffecdfU,
  0xbe080000103eU, 0x484800007647U, 0x4bd00000982U, 0xf08000012aeU,
  0xffffda6b000004dbU, 0xfffff1a3000018f0U, 0xae0fffffda1U, 0x3a3fffffc1eU,
  0x157a00003042U, 0x148dfffff7c0U, 0x1053000024beU, 0x3393000016c6U,
  0x153600000f5cU, 0x1a6500000263U, 0xffffea2e00001253U, 0xb4ffffe760U,
  0xfffffb11fffffef9U, 0xfffffd4e00000de0U, 0xfffff99bffffffc5U, 0x302effffe82aU,
  0x58ffffff9ddU, 0xfffff7f7fffff71eU, 0x1ee5ffffe56bU, 0x4c600004d92U,
  0x5b8ffffea86U, 0x96400000657U, 0xfffff97600000692U, 0x3365fffffd3dU,
  0x7db1fffffd97U, 0xfffffc6700003de2U, 0x7bb000024e8U, 0xd5fffffe03U,
  0x1d1200004dcfU, 0x5a1000015f4U, 0xc5d00001849U, 0xffffd9c8fffffe58U,
  0xfffff491ffffffd5U, 0xfffff694fffff968U, 0xa3816481a774995cU, 0x6681a17f4c8f575dU,
  0x68fef79d7a4b4d81U, 0x91657da05fb26ebdU, 0xa25b5f61524b934bU, 0xa93b989981cd9761U,
  0x3f8141aaa37f499aU, 0x6d5c518aa7af419cU, 0x60a7cf7f51b28572U, 0x407fabb662516c9aU,
  0x42a1c39e924c559bU, 0x40735453584b906aU, 0x9e987aa49fba816cU, 0xc5868d7a5e815c70U,
  0x54ffdc81766554c3U, 0x846f7f9b669f7995U, 0x816db8d75a5e815eU, 0xa15110a3458b927fU,
  0x689a648190745fa3U, 0x646a6681a68a6c9eU, 0x73a39f775f5c9364U, 0x67938e9b7f6a758aU,
  0x5b81ad818762661dU, 0x777260627169a0ceU, 0xc9bf2dffd1ccd12cU, 0xceecd41a29bb382dU,
  0x3a093cc3281f240cU, 0xb53046d829dd38bfU, 0xcd27e2fa2526b127U, 0xe92927d53c81d429U,
  0x3ac62acccd1722c6U, 0xe2f25d9d1bb28e4U, 0x2fccc43423fecb4eU, 0x2603b6cc312241d2U,
  0x1fbce7c6cc47273aU, 0x453e3528302bcfc3U, 0x8124678da37f9c60U, 0x7f04816c6c11645cU,
  0x93afdc367f7467e5U, 0x8578759f7a9472a3U, 0xaa657f7f5e698a50U, 0x9458818684918eeaU,
  0x6791578d955d67afU, 0x7f666a909e995e99U, 0x6596ae76609d8174U, 0x5d5f539de4707f81U,
  0x6c90a618875c6881U, 0x647b7961715c817fU, 0x9d497fad81ae877fU, 0xad49967f7f157f7fU,
  0x8195b94f7f7f7f6cU, 0x817f7e817f817f81U, 0x937fbdb67f7f897fU, 0x817f38813f8a81d5U,
  0x7f9f7f8d81597f81U, 0x7f7f7fa381817f81U, 0x7f8181687f7f8f7fU, 0x7fb27f81c87f7e93U,
  0x7f94810d817f7f2dU, 0x7f7f7f7f7f7f9fafU, 0xc63536f3b6b2b441U, 0xd13ecb4630073d33U,
  0xcad27f242c283257U, 0xb73142bf3ec92eb3U, 0xbc35d4be3033b342U, 0xd43c45b656a8e1f4U,
  0x42ce3cc1cb123e93U, 0x2b3940d4c3b93cd6U, 0x30c5b72231f7c550U, 0x39f53fcfd53942bfU,
  0x31b4db04c6483849U, 0x3d3e3a393e38d8aeU, 0xc8322cd5d131ba2aU, 0x3d36b63f384f3728U,
  0x247f633401d2d0bU, 0xc03436d232d524cdU, 0xca2d3c512934c420U, 0xcf29b7b4ada3add7U,
  0x3ab223c5d5113bd1U, 0x293020ddcdb833dbU, 0x2fc5e04026cacc3fU, 0x291efae2be2441b9U,
  0x2bd3db55d13035adU, 0x313b3e273338c53aU, 0xc0643de0b9c2a138U, 0xd179c04a416b452aU,
  0xa7fde344e2e3763U, 0xa23337c733b822c3U, 0xd12ee9ce383ec036U, 0xcc3829921fb99fc1U,
  0x4cc232bdd8193fabU, 0x303730e3cdab38d0U, 0x44b8cb2b393cc344U, 0x40e6ffdeaa363ba5U,
  0x30cdd256d83d3e11U, 0x404142373d46cacdU, 0xe81d20fbdaeccd21U, 0xe83ee32f1b2f2417U,
  0xfb2d460f2117132dU, 0xcc1e10e51ae80be9U, 0xda10efea161ee216U, 0xec2323d425d8d9f3U,
  0x28d41fdfdd0b24c7U, 0xe2221f2dbd321f0U, 0x18d7db1319f2ed19U, 0x18fdfef2d11c2dd0U,
  0x16f1f51bed282228U, 0x1b2721151d1fecd8U, 0xd0330000008aU, 0x79a100000f2eU,
  0x1e20000c05fU, 0x59000000b007U, 0x89200000813U, 0xfffffc50000002c9U,
  0xf410000001c4U, 0xfffff6c900004207U, 0x2f0d00001aa4U, 0xffffff1800000c7eU,
  0xffffe748fffff9bbU, 0x222fffff439U, 0x6ca50000e68fU, 0xffffe8b5000342a9U,
  0xffffff1000008eadU, 0x422900001d65U, 0xc6b200000264U, 0x3b300000459U,
  0xfffff6b2ffffefffU, 0xc3c8000001a2U, 0x10ed5fffff8dcU, 0xfffffb40000095cfU,
  0xfffffb7b000101f2U, 0x1b4ed00000a18U, 0x10cb0000c222U, 0xe95f0000020aU,
  0x92100006f6eU, 0xe47d00008931U, 0x163e000123b4U, 0x14fb700005064U,
  0x502e00007e7eU, 0xfffffc3d000007caU, 0xc2c900000734U, 0xbedfffff7aeU,
  0xc3d300003c04U, 0xfffffa340001278eU, 0x34400000b5dbU, 0x6fd000016c1U,
  0x2850000ee9eU, 0x2a7fffff91aU, 0x8bfffffa24U, 0x15a45fffffccdU,
  0x1f534000006ceU, 0x4f20000e655U, 0x121eefffffc96U, 0x2ec00001652U,
  0xfa500000ba5U, 0x40d00000e94U, 0x82cd4d9d3b417fcU, 0xe1b4fa1dfbf80502U,
  0xfc2d2c31fdd3fdf5U, 0xcf19bfc3972b4318U, 0xe3f8ce11c2bbef81U, 0x34ccfc3b9af1cff3U,
  0x85f10f4a59e93845U, 0x88642fdc8ea6953U, 0x20e6f9ea2e0e24c6U, 0x10b262ac20fc3fdU,
  0xf5d0cd05f0f401e5U, 0xee9eedf664ff24daU, 0x8da18bee522e0f4U, 0xcb42f00fee651b0fU,
  0x544a0649281305cfU, 0x50f119003ceafce7U, 0xd404183c96e42215U, 0x18f2e9fed4d801eeU,
  0x1dc9d8bcea08e4cfU, 0xfc03320009d4c63eU, 0xdf2e804130af7feU, 0xba241d257fcf0df3U,
  0xf3edda4d3b15f509U, 0xff052804c5dce81bU, 0xfb000720de111503U, 0xeefb10090210b202U,
  0xfcfef2fd0b02d7eeU, 0x7e30607fded2b15U, 0xd1160f05dd21f0e5U, 0xc0bfef7fff8040bU,
  0x12dc0d19fbfcf6ffU, 0xf601dcea42fbff11U, 0xfe21fff07ff8e7fbU, 0xa19e7fefdc506f2U,
  0x3805eff8d3f61df8U, 0xf80defe2f900f7fcU, 0xfc03faeb05000ef2U, 0x1100f5310006fefdU,
  0xdf1ebf212f60a16U, 0x1ce318f916f602ccU, 0xafb11f5fefefb81U, 0xfe0eeae124b4e117U,
  0xfdf20dede9f70748U, 0xf511de02fc08f012U, 0x3f20be16e0effdf9U, 0x1be9e4f209e54c0dU,
  0x10a11ef1cee13eeU, 0x5dd0fd1be9ed0f1bU, 0x16c615f5d41b08ebU, 0xe8041613ced51c7fU,
  0xd17302a19ef5edcU, 0xdf070a18cb17163bU, 0x22c9f6091351e6eaU, 0x313f3ae2ebd4d4f1U,
  0x1ce4f3150200e80dU, 0xe6d3250d71dd1b14U, 0x2dcedad6d524fd20U, 0x20ff0d17da3117deU,
  0xfeef65ec0711c312U, 0x4f0a02af1ef2e5f5U, 0x3b0e04251ef628ddU, 0xe5ee06043feffdb7U,
  0xda08fff126e7040eU, 0x1e26f60bffaa7f4cU, 0x13c0e0f5bd126902U, 0xd7f4f4ed0c1007f0U,
  0x17d7964eb3e61220U, 0x133a43033826e02bU, 0x233ff27ceed13efU, 0xb9eeed09e324ffebU,
  0xe61cc8f3141efbe2U, 0x220619ea080b0408U, 0xa09e4dded090be1U, 0x1200c5020ef11313U,
  0xfbf5091f02002ef6U, 0xff0afbfdecf8f31fU, 0x23f0fe00f1fa08f7U, 0xebf92205fafdf3f5U,
  0x2012effc056606f7U, 0xf3e7fc9e0efdfe13U, 0x28e913ed090edeecU, 0xeff9ff0ff2eaedf9U,
  0x1bed1111f57f3f15U, 0xdb25c05912fadd34U, 0x140820e3fd07371eU, 0x6f6fcfc0e001723U,
  0xebf3fce1f9ec0cf1U, 0xec0af3120cd4049fU, 0x14db1814b1291b16U, 0x2b211410f3010af0U,
  0xb30aeefac42ae7eeU, 0xfdf9f5f1f8f402d9U, 0xf3ef03eefa1a1110U, 0xec0ae7f8dbefeee1U,
  0xcf8f60bde815203U, 0xea01cbe7fbdf0bedU, 0x3dad2f222f3f51dU, 0xd90e070228141700U,
  0xfcfaea12f5302a18U, 0x20d3d01aee17e4c9U, 0xfe0100fd30020bedU, 0x8953edc805f6e927U,
  0x331d7e94d2eeb38U, 0x180d170511ede6c4U, 0xf81f5e426f908ebU, 0xc9140e150a1ee0d4U,
  0x1619d1e620cb4201U, 0x45efc7c3f54900deU, 0x107fe0edd6bccf03U, 0xfa0f2a19f6fff654U,
  0x1a0f20179cf92e69U, 0x4c2b281fe61916e4U, 0xeb06e212f1092828U, 0xd101bc07fde9116dU,
  0xfc34bd08080eabc2U, 0xf4f628ef0847daefU, 0x4efcc72a08130730U, 0xd9fbf2d82123d1fcU,
  0x3fd716ecf5ed0ebdU, 0x11cf07e1f7f9d5U, 0xf7baf70bff0c16e6U, 0xbd6051114ab00ffU,
  0xefd0cbeac11c1d07U, 0x690dfacfc1f9f00dU, 0x1c06fa09e1e2f2f3U, 0xf301d7ee0cfff6eaU,
  0x71511dc05d41cd6U, 0xdfe3c11c090a01e9U, 0x19dfffdecfb6ffd0U, 0x1de6c70ff5b9e8e6U,
  0xf110d8b8401016d2U, 0xbef710f381e1ec17U, 0xecee0b030310ed08U, 0x1f9f1f0cc13fee2U,
  0x1606f7fbfaedd5f6U, 0xfd070422ae320dfcU, 0xff2704ea0907daf9U, 0xf27f12190d07071dU,
  0xe70f12d912d403U, 0xe52aecdaee0712fdU, 0x1107111de1ff001eU, 0xfb000613041df500U,
  0x602dc00320009f9U, 0xf6030c12f0c809fcU, 0xe6e104001ae2d00cU, 0xe51bfe2506072ac4U,
  0x170ef122fcfffde4U, 0xf97f15ee120913f5U, 0xe0cdff84c82ea07U, 0x1cef02e213ecf9f9U,
  0x5d703fe021005efU, 0x410eeae43ee0fc19U, 0xf80bdfebf3f90af2U, 0xfdf201f4dafe06d1U,
  0xea0ada11ccdb4cf7U, 0x1604c6dff6ed03f4U, 0xebfed3080c2d17ebU, 0xf3fa28e7320b121dU,
  0xd27faf7280a21e6U, 0xd95609ffc6def902U, 0x6ee2cf2fc9c17e8U, 0xa42e0aeffff3ec15U,
  0xe4db02ebc9db16e8U, 0xece1e60bddec2711U, 0x1bfb1e1e0dffcff3U, 0xd8130808149a1406U,
  0x7fe9cefdd9f89022U, 0xb908370b1ef40205U, 0xd009daf8de04ef0fU, 0x6f20f0817f92c15U,
  0xff021510e3028111U, 0xe4ee0602302e19e0U, 0x1c58ff0f030b1cdaU, 0xe4dc0ffc080df612U,
  0xebf7f302eb09f80aU, 0xd5fb1ef9290def0bU, 0x1ef933dec210010eU, 0xdaf9ffe9ed0405edU,
  0x2b18470fe4f31402U, 0xc5f0fbe506010bffU, 0xc1042311f6130d23U, 0x3ffed0f18f81c37U,
  0xaf21bf00af1d40aU, 0x345909f5f0fff116U, 0xf9430207e748193aU, 0xca16fe171005f8eaU,
  0xff03ea1efee7f6d5U, 0x52eaf702ffe50ff1U, 0x2816ef0250244024U, 0x1904f231f204230cU,
  0x81f4fafb0c09f50bU, 0x13c70e02f9213d22U, 0x97d211b192de556U, 0x173207f3390108faU,
  0x9b505130013f3edU, 0x30c70af726e8050bU, 0x19d52c68f9dcd2e3U, 0xf7ff7e4efe01230U,
  0x2a0140f102f02cd7U, 0xc6e7f7f22d0201f0U, 0xe4dae4edbe060806U, 0x34bbb41b22da10e2U,
  0xe5f6fa28f1fed9f9U, 0xe20ff9e9c401fb1eU, 0xe3040ff20206fa0bU, 0xf10602cb090004d4U,
  0xfdf4fb11e5ffce03U, 0xe1161df00fddc73eU, 0xf90efa01f1fd0ea7U, 0x1deff03c08c3f410U,
  0xf746150fc6fae14dU, 0x2719f0041bfef49fU, 0x1eaacbbc28130f1dU, 0xde0b08def5fb8102U,
  0xf81fdaf5da77d3f6U, 0x6c0136e4f90034faU, 0xffff07ef2817f9f1U, 0x1fa201d201f40ffeU,
  0x1821fe1b4bfa297fU, 0xe9e8dae81106e0f7U, 0xef214cd6fdeee60cU, 0xe21c0aeb1f0a134fU,
  0xf9b41ce2f6f0f0f5U, 0x1810eaeb41e0fcf0U, 0xe04afae6fef70df1U, 0x2d3e373023e04101U,
  0xeeeff8e9ed25fa22U, 0xa4d04f60cfde501U, 0xf70d71ccf3d1b5c6U, 0x4f7fe0309fad662U,
  0x2007eb1237c9c806U, 0x3ad017050be616dfU, 0xcfccdf05f1d5020U, 0x26f9e30f1bcfe4f8U,
  0xe6f2810ef903f8daU, 0xda2ecd0004f048f1U, 0xf2dce419f6e8edffU, 0x7ef91034e61eeff1U,
  0xbc8f01edf08f0fcU, 0x21f9241de1cbfedcU, 0x810fac81cf809e0U, 0xf5fc0f27ec03dbcbU,
  0x8f1f41410171b13U, 0x4c208fa0ff9f4fdU, 0xf4f3f5fc19e2f06dU, 0x16faeaec0d43c60eU,
  0xd60a140ff6f2fec3U, 0x421eb142deb06f2U, 0x7fe044e203f90c03U, 0xfbef0bf901fd15f5U,
  0xf0cfcd3091afedbU, 0xaebffbdd0b073e0cU, 0x18d00906dccbec4cU, 0xb320db1a08c32070U,
  0xd4d6e40fcaf404cdU, 0xd2e8810ff408d531U, 0xfdccce0b2013f2ffU, 0x24f6c1c3d9130bdcU,
  0xfa42fc323222b402U, 0xddf139ea46149588U, 0x184bfde0d2d8cecbU, 0xfd2dde4500285e3aU,
  0x315ea302c0e4d0edU, 0xcd603552305fecdU, 0x1143f1e90d0324bcU, 0xf68127c5d0f608fcU,
  0xdb042fcf12f12a8aU, 0x1207ae3f2d1beaf2U, 0xf31ee700010a09f8U, 0xe4eff0e5ad0a1cf6U,
  0x4bffbf1fdf28c22U, 0x104fb9fef224eefcU, 0x40e02e6ee3d0beaU, 0x3cb125d15f82d0aU,
  0x32eaf50a46fe15d4U, 0x19272c1bf5e6e1efU, 0xf31d1b17c7e5fac1U, 0xf206ecebcfedd6f0U,
  0x122cfb17e012c7U, 0xcd1420c4b8e98203U, 0xd3f9e0291df2fddeU, 0x8199e6f5edce02daU,
  0xc4c7f820e00c58dfU, 0xe2e6fef819f9c3d2U, 0xf3ff9271e2eed03U, 0x27f8ffd7d8020e06U,
  0xd346d6fb160328f7U, 0xece6e8e628cbed02U, 0x6dc00001715U, 0xa8affffe9abU,
  0xffff50aaffff1ff5U, 0x10ddfffffe632U, 0xffffb02f00008d8bU, 0x84700008874U,
  0xaf8400002745U, 0xffff757d000033c4U, 0x11db9ffffaca0U, 0x4d88ffffcfc7U,
  0xfffff03c00004de4U, 0x105faffffad25U, 0x2b1b3f61e2f41be2U, 0x18fd68e87f15bcdeU,
  0x2faabeeffd2b41bcU, 0xffe8fc10f00121f9U, 0xf3c93b0e0b04810aU, 0xdb90e90ee43beed4U,
  0x1a0aa4f8f0ba091eU, 0xe20605de03fbe951U, 0xa310df08498143ddU, 0x439741357f1f2214U,
  0x1ece9e84f108e48U, 0xfccde6f6e705d11eU, 0x157f1cfef50e22faU, 0xf009bf1b160b1333U,
  0xaf4ef34100c3426U, 0xe72900aede7f16ddU, 0x2d0922d609fce50cU, 0xfb2313d90c2fe7f2U,
  0x9557f0da98ce94daU, 0xea182cebf265b1c2U, 0xfe5bd61f8db7fd8U, 0xda0dec2fa8bacf81U,
  0x16f11b64e71e4c06U, 0xf9423a23daefe2e0U, 0xb1e01250eeeae05U, 0x11cd7f1b1bf03400U,
  0x2529ece1f6f9fb0cU, 0x6ccd2417f1ad3d3U, 0x1bbdf848c2873211U, 0xf1fb179a913c3e1bU,
  0xf7039d03c481ee74U, 0xd90d01cb9ef60a42U, 0xf3f89925f08b6215U, 0xac5df823a5f8f6eeU,
  0xf80a3de3181a22bfU, 0xd9ee03ed36e57f1cU, 0xffdc641e0d589531U, 0x3320ce9f0a5a81caU,
  0xf05f20db1dcf1ebU, 0x1be8020a1210d939U, 0xf230de0781121bcaU, 0x154d08e24019ea0cU,
  0x23ee04301494faeU, 0xcaf27ff614e0bd00U, 0x35d217df24dc0ef3U, 0x116b0c67cc52fd18U,
  0x51533bc6105be56dU, 0x8118be41fccb498eU, 0x15fe03492603e74cU, 0x11a012c73fda7f42U,
  0xbff4feb6e536ff1bU, 0xeb26f20c36a9f8f5U, 0xe599816837dfd518U, 0xee043420da151f08U,
  0x162d13c8e350810cU, 0x3511fba7c21832e0U, 0xf823c803080ff11dU, 0x60ad124e6ec17d6U,
  0x1fdb354a1f008113U, 0xfc090d04e20fef43U, 0x1b4c34a2f0a3430eU, 0xf4396af9083c4c7fU,
  0xe5b0921cebfd46f0U, 0x141a31e31218a374U, 0xaf040aacfac7bbf6U, 0x13edd51ee5fa7fb6U,
  0xee1c5556bd29e41cU, 0xf6d4177f2d195b3eU, 0x15cadf18d43f56ffU, 0x21a807144e09e41aU,
  0xf9810f21c5f2ec66U, 0x430da90c3d753e8U, 0xe51b190a07ceee0aU, 0xb4e202281012170fU,
  0x25a5fc2381dd18c7U, 0xd9f87f00e2fef02cU, 0x11fc25f2f54e0131U, 0xb10d11007ec3549U,
  0x5210d2f1fb0d29f2U, 0x26e60ce18bee210aU, 0x1081c8fdfad056b4U, 0xffd3df02d30081efU,
  0x9f46ac41703f7ffU, 0xbbcfd2b414e31f04U, 0xff09ee2c17853600U, 0x4ceaee79120a7f44U,
  0xf0e128e128fffc2bU, 0x32ed1b0315cf5601U, 0x431c868aed7b81b9U, 0xe1deb3f5c5e244dcU,
  0x5d8114a9123535bfU, 0xde12d0005c124d24U, 0xfb7f2fee3c322a08U, 0x4981f217ffe4c21dU,
  0xe73097efda06bdcaU, 0xec2b1d15f8003905U, 0xd0733b990038e6e4U, 0x137a0e17f933e940U,
  0x1427fb366352cb7U, 0xe18b4f5b4f042e7U, 0x7af2160f11f62e02U, 0xfaf71d07221a8112U,
  0xb87f0408bb02c9ecU, 0x1220b1dbe63158e8U, 0xd3d30566e0d25b19U, 0x2e37eefb26f121cbU,
  0xf1d93cdc1e0e73faU, 0xe8cef2ee287fde5aU, 0x2845e8ded481ec5bU, 0xc0ee15ef0c12f239U,
  0xf916cb2733e14532U, 0xc40e2816087ff5f2U, 0x1004f74cedd4f7ceU, 0xf0fb1fe8080bd7edU,
  0x7032c191ddc6d76bU, 0xdb1b0d092c23f927U, 0x308c3220cfe7fc0U, 0xc7ef65384f78288dU,
  0xe28d649e0c419e0U, 0xfd2d200bf61f8122U, 0xd6e0325b3a1fe5cdU, 0x1929d610a5e3b6c1U,
  0xf8213a392c058109U, 0xff3090de1ce0d01U, 0xe7d2237fedd8f906U, 0xc6e18099cd9f0f9U,
  0xdcd747211c4fe4c6U, 0x3cf31e61ced62a93U, 0x310207eefd0b81f9U, 0x2219bcdeb4e8df59U,
  0xd7d949b653155065U, 0x92278e0f138155dcU, 0xf06dae41309364dU, 0xe3eac4070522819fU,
  0x43b91a1cd0b21232U, 0xfd0e0d2f59ffe4aU, 0xa36e1692318443aU, 0xdb7ff2c751c6e6f6U,
  0x19f8ceb9e430c721U, 0x457fd326b5eae4b2U, 0x8a12fe43c6080be4U, 0xe9ff7f37fe52dbdcU,
  0x536c1d2232aaebaU, 0xb6524e6a32915edU, 0xde6bfc1f5b63debU, 0xbe78931a8824d1eaU,
  0xe4d81a18dd811912U, 0xe152c08be2970544U, 0xdf390b1381e5db33U, 0x68c5932d18b2b2acU,
  0x8179fd31ff29f5edU, 0x232529b6310d51e7U, 0x1421737d17c5317U, 0x1440bffc411ce653U,
  0xebda300e05d319c8U, 0xfe81c8260abc1efeU, 0x95f7f08121a25aacU, 0x8556ac54c6d9a9bcU,
  0xf2cec43a1425f9dcU, 0x18111eccfad4037U, 0x12f90deaee05f020U, 0xf1ded1c411eb01d4U,
  0x41c80e010c1c1b26U, 0x905c8bb8132fcc8U, 0xc66fede118f8c829U, 0x1a29c916e73c4217U,
  0xb9d41f333e02c819U, 0x5e57f32abe1fe51U, 0xc4fd55f62df49f18U, 0xcff981041c0cd4fcU,
  0x1ed1a14cdf14bb8U, 0xdc1fe0760847d894U, 0x35581e0a07d3b3beU, 0x40c57fd7efedc860U,
  0xf6feed0a1b19dfb2U, 0xf3e3050e050508fdU, 0xd0f10e8fa7faf3fU, 0x8190b1fd9f13306U,
  0xfd81fc0b02f15c14U, 0xecec0f11f4fc1cf3U, 0x2b7fe7b15af0f825U, 0xfff4060b24074909U,
  0x7fb261f09e4faU, 0x3400f24fd47ff808U, 0x356a732d73410efU, 0x114f8506022f2f34U,
  0x2f0c1fed2a49ae72U, 0x29e0be87be740ce8U, 0xbf0611bee97fcf90U, 0x11d7fe5fcf60aefU,
  0xd4f006e48b460bceU, 0x735b42421deefe9U, 0x4d27819435e71e0aU, 0xe254e4fcefba2f1fU,
  0xf8d8f5bd3fddf9b3U, 0xd17f0942010b06f9U, 0xf802561210dcfc00U, 0x2102e40e1618ec0bU,
  0xf2fdbf3fe3e5ca1cU, 0x12c9c8f21ffc5ce5U, 0xe3e0ec7f0a021f15U, 0xaf8eb210d0cadddU,
  0xe1d033247f0efedfU, 0x24332703f105e102U, 0xae54c81381a63016U, 0x3830e40c0a31f718U,
  0xb1d3cf18ecbd363dU, 0xe33dc3e0d1340f8U, 0x4072160c1bc86af8U, 0xf650efe4fd7f9bdfU,
  0x18d9fb3210d2da2dU, 0xd1e980d81f0f9ceU, 0xf83cd61450f81bdfU, 0x22e0f31c0d0be112U,
  0x21f60a05e3ed7f0cU, 0x1e1dfcfb113dff32U, 0xc4ac742c0d6412b9U, 0xf6f72452d30417a3U,
  0x18073af21cf68122U, 0x1f07d749082b7fdeU, 0x1bbb00175ee4cdf3U, 0x10ff29dd9ef0f426U,
  0x21e2a8f51ddb01e7U, 0xf12ef9f38130cc20U, 0x9e613ed16942431U, 0x23d70fede00505deU,
  0x19f1f72d00e807c2U, 0xf3eefe0cf048105U, 0xe4f1272e147f10daU, 0xdf1d1b47f6e3a2ebU,
  0x450058f6d6dea41dU, 0x127db0d122601cdU, 0x42d97fffd8093e18U, 0x1ee9fa1dd63cdaeeU,
  0xde40a13febd1e0b7U, 0xf10e12cea5e08119U, 0xaeda260c064a0d20U, 0x4ad39102ea8cecf4U,
  0x14c535df3004167fU, 0x8e27a5e910d21322U, 0xff7da1b556e929fcU, 0x8ed94f1e198174b4U,
  0xb927edd01d0a19d0U, 0xe6fc14ea04f413f5U, 0x186af1d981cdd2c1U, 0x1312e60e04d80202U,
  0xa0b7ced2f7e91317U, 0x37e17ff557f809f5U, 0x5512eed604a81d14U, 0xe0e9f10ac427b17fU,
  0x482ba5aef5e1bd18U, 0xf7e10115f2cb0db9U, 0xbeb9443cef2aa9deU, 0x51072121fbf00a1dU,
  0x3c363df2127fd80aU, 0x814b051abc3af4deU, 0x4214180edf54f091U, 0x137c6aefd9043419U,
  0x7fb3aac794b3e461U, 0xdc4212aeced011f3U, 0x9896d7fe2ac33ee1U, 0x78b1176f8458681U,
  0x472afa020c8db8e3U, 0xbf467307fd2e9c52U, 0xe05f3380ae9edc8U, 0x12ef280ffdf281f9U,
  0xff9a07f7f100dd36U, 0x8e32e5eae8d5f8e5U, 0x17080a7ff022191aU, 0xf621f613150bbb0cU,
  0xf0f306fe06db0ef4U, 0xfc02e7ff0c25ed21U, 0xec81000efe4e1de1U, 0x2c297f1beddc26d9U,
  0x11c6e620ab761528U, 0x173adc0645f344bbU, 0xcffaa4e6f87fe613U, 0xaf4eacfd528c214U,
  0x42ed330fe0c556f7U, 0xeeb850144c22db8aU, 0xd581ba127a9ee721U, 0xab2520dcbe51de24U,
  0xf82911e318b0584cU, 0xf710e507811cb11aU, 0xd2aaddf3d0b6f6d2U, 0x1502270133681300U,
  0xb6eba68f36288fcaU, 0x36eeb6f3e9207fd1U, 0x74f11ddc682f48deU, 0x1320c81cfadc2e23U,
  0x54edf0433381a6d5U, 0x68b4e4cd00eb3afbU, 0x9ec936e15cb5170fU, 0xf9b981e209dfcc73U,
  0x2b068e28fab0a824U, 0xd9d62bec1819bf12U, 0x816696061aeaff1bU, 0x7fd392e9b1d0fd36U,
  0xeef9c40dbf560fc8U, 0xc9cdf5bb2af1661dU, 0xee0b7237f6f6c911U, 0xfce1c1f47f5837e9U,
  0x34127f4d8011decU, 0xec0b98f0f2f1051dU, 0xfe1181f5084b99f2U, 0x59ce4d4101cf500eU,
  0x18b414e04f105bb5U, 0x258149f40396e3dfU, 0x47b8b1d5fb12a122U, 0xc87f0623ef251de9U,
  0xe826e5dcf512d4b7U, 0xf2ef361de90037fdU, 0x585e5add3d7f7b4eU, 0x28f05011443b400cU,
  0x91e4ef03fbc7de6cU, 0x14eacde0e9feea24U, 0xe25ef8d081eaf3e1U, 0x1e5d114ee0446e2U,
  0xfefc0b4fe32efec2U, 0xf0f33012f8e8cde4U, 0x21124e6fa7fd821U, 0xf8fec050ed41bb9fU,
  0x21b55a4a2ff1a429U, 0xef487fc01048e463U, 0xfff681eddba8e626U, 0xa8ae262c60d3127cU,
  0x1d144e0e4083014U, 0xebfb2019f3f10f0eU, 0x481312314ea160aU, 0x2ad3f41bede60e20U,
  0xb08111d9b5d3fbf9U, 0x43c45e981209acdbU, 0x1c20cd4cdfc30e0U, 0xfbdd110f0b81e707U,
  0xc52ee5311b10d0e4U, 0xc25fd2efcb70703U, 0xe4e9273e0121bd00U, 0xf4ecf4f4f3043723U,
  0xfe2647cff319813bU, 0xad0281cf301d6d8U, 0xf8140600dd13ef1cU, 0x514c0d0d047f17c6U,
  0x21eaf13a6e62404U, 0xd2b421ed4107f20cU, 0x817300b66be1f3fdU, 0xd9bac6cc0489f5f8U,
  0xec7fb54cef0012f7U, 0xa5484af967fd2bffU, 0xf1e01006223a06feU, 0xa5d81a10755d8b5U,
  0xf4f40b39f10c1dcaU, 0xdc08f00508f84219U, 0x31de05051102262dU, 0xee81ffe7fe0cfb08U,
  0xc30943f2f5a1d222U, 0xfe8123204b24354fU, 0x6bdff8152cfc099eU, 0xe6812b03e9bbc8f7U,
  0xe5d255de120ed9d5U, 0xe7d3e1f00309e4f1U, 0x1761c20c1f7cb5ecU, 0x3dae11dcb8b6e2cfU,
  0xd10a1981e57fd3f4U, 0x8f313e803f2ce03U, 0x110911031ce37ff4U, 0x17d4fc09c2220d1eU,
  0x7fa91bbe55fafa61U, 0x32ac7d4182cd3f4U, 0x52372713efd6ace6U, 0x24141610f248214aU,
  0x4280a3efd174919U, 0x3c28811a14b705edU, 0x3a7f21d509f62afcU, 0x1a0ffb4c1cdf362eU,
  0xf0e173ae0f5fd40U, 0xfa811bd8e00118fdU, 0xd937a911e6e8ccU, 0xafc04d3e6efe2ffU,
  0x54c4ea810e3becd6U, 0x19da920d1c5ff3afU, 0x10570bdf99d72ebfU, 0x7ffa03e5081c30edU,
  0xf084fbb04163527U, 0x37e51938e2ac37dcU, 0xf42ddf06eb1415edU, 0x8f3312e0b088106U,
  0x27e31d03f2a8f4faU, 0xa70f1489d67f66c8U, 0x430aafce9332831fU, 0x7f04172754e007beU,
  0x19088100a8cb94c9U, 0xe7183333e608effbU, 0xf4ca2c040e2cc3abU, 0x39e4141d29de0513U,
  0x3ce75d7f53e7fa69U, 0x1f7ff8ca0823b0c9U, 0x8f924dd80537eab2U, 0x2df6e732bf14cef4U,
  0x3d047fe0da46edfbU, 0x3128b4e0e6c4267fU, 0x2d2beffaf4e2c842U, 0xbaf0a342faf25ce4U,
  0xed2ee8345a474e04U, 0x54241e83df50393fU, 0x59a903b32fe48116U, 0x1cb9311cf1240e05U,
  0x34bc26d37f0af3f4U, 0x27f7fe14ff0522efU, 0xb01d44ffa9221822U, 0x5cbdd89c81dcd70bU,
  0x1730d41885070a92U, 0x18081a19f5e303d5U, 0xf81fa1fc1e011f7U, 0x7ee104be13312e7U,
  0xfe099540d2deec2bU, 0xf46be8dc81f00bd7U, 0x2278e5dc099704eaU, 0x5d1e09caf212c83cU,
  0xeb34d6411a0e277fU, 0x1304111e0002e4f9U, 0xf29ce32f57fe3f8U, 0x13166107109f00cbU,
  0x383d16def2020958U, 0x217f38162219f2e6U, 0xdd1fa213fac12c06U, 0xed13f91dac249a0aU,
  0x20d726fffb1f1837U, 0xf3dd197a9fab229U, 0xf5f40f0dc9e20f81U, 0xab597f1f510a4ceeU,
  0xb0d95a79edffce46U, 0x2ff2dfa9242e0a1aU, 0x1c600002146U, 0x24ed00004e85U,
  0x196500000c0bU, 0x526000037feU, 0x25dd00003027U, 0xfffff967000054caU,
  0x33aaffffef0cU, 0x30da00003833U, 0x27d9000033fbU, 0x230200001fb9U,
  0x4b9000055c6U, 0xfffff7970000159aU, 0x199900002c3aU, 0x16830000369eU,
  0x65db00002e5bU, 0xfffff11300000755U, 0x403100000210U, 0x3ae500001bd9U,
  0x220400008ffaU, 0x39a800004068U, 0x1ce8ffffeeb6U, 0x61920000204cU,
  0x3ccc00000ef5U, 0x49c700001fc5U, 0x200c000044acU, 0x20ac00002680U,
  0x21600000d50U, 0xfffffe79000023acU, 0x285dffffe866U, 0x7d16000058a6U,
  0xfffffff0000017caU, 0x36c800003416U, 0x2159000010a8U, 0x1da100003487U,
  0x1831000079a2U, 0x214a00002094U, 0x250900003a89U, 0x1ff4000039e6U,
  0x367e00002cddU, 0x284400002d52U, 0x19e5ffffe4bbU, 0xffffe87100002399U,
  0x1ad400002c90U, 0x1e8300000d80U, 0xfffff76400001605U, 0x1431000016bfU,
  0x48a900001725U, 0x1851900002ef4U, 0xffffde1c0000008cU, 0x160c00002232U,
  0xfffff92b000018b5U, 0x117700003920U, 0x39e600001afeU, 0x458bffffed8fU,
  0x1b7afffff9a4U, 0xfffff59900000158U, 0x2631fffff2feU, 0x4d86000030f8U,
  0x2d8d000043c3U, 0x223800003811U, 0xfffffebd0000bdefU, 0x15f7000001a5U,
  0x3257000028dfU, 0x193400000bf6U, 0xffffed07fffffce7U, 0x3567fffff41fU,
  0x112b0000386aU, 0x194700002cbfU, 0x173300000b3eU, 0x577ffffd96cU,
  0x218300003a6bU, 0x332c00005ad2U, 0xb82d20eeef0a7f0fU, 0x601f5170fff07U,
  0x6325eab1190a1405U, 0xfdfbfaf1d9f814deU, 0x16f40c0f0bf411f1U, 0x1115f4f911050f2cU,
  0x97fdbaf81525ea0aU, 0xf2fa0de113200df4U, 0xe9ede0f70100ccd2U, 0x581f6efdd080b0fU,
  0xe214e4010d06f8f4U, 0x270510f9d8b1f8f2U, 0xe91b031a1b1628fbU, 0x16f0fbe627950b95U,
  0xd17170b13f6cc07U, 0x8ff4080f051f0f00U, 0x47ca01170646d634U, 0x250e0a1a010fdb2fU,
  0x81df88cf8cf16ee5U, 0x7f117f01307fe2ceU, 0x3018129e7f7f04daU, 0x29f669aeace17f00U,
  0x7f0cfa84ebe7c819U, 0x957ff51179bcea1dU, 0x81de81fc317fe5deU, 0xe4132ec3e2bad612U,
  0xee6888c0e5cf06dbU, 0xfc9eba0599fa7ff2U, 0xdb7fe97f22e97f35U, 0xfb18fca3bfd120d3U,
  0xb07ffbe414f97f11U, 0xfbd7f2eee1c2fa96U, 0xf1f47ee605818105U, 0xadee7fffddfb7ff5U,
  0xf9da7ff9ec06545dU, 0xddfa7f7f2dfaeaaaU, 0xc0ea33e62f0d3914U, 0xa080bf61110030eU,
  0x8b27f3ef0804f50cU, 0x1ed091bd7191010U, 0x151c100906f5190bU, 0xe91b0efd28f9fb03U,
  0xabffc9ef1909e70aU, 0x110bf7e501280a03U, 0x29e2e7dee4f2c6e3U, 0xb8bee1af20608fcU,
  0xe34834160c0d020bU, 0xe007ebf9d4c8f0f2U, 0xfdfb031214073704U, 0x5e2fced10a3fabcU,
  0x2f20602f5edf80fU, 0xb1f917fe15211205U, 0x46d207071bdae51bU, 0xfcff170df710ce0eU,
  0xa87fbed581f15d7fU, 0x2215f60925edd4caU, 0xd50e1183e9eb7fe0U, 0x21ff06deedc8028bU,
  0xee7f7fa6e1e3ce11U, 0x52fd811102f17f37U, 0x9b0b90623adee0f0U, 0x9cff17ddcd49de1bU,
  0x662581267fd0ead0U, 0x7fc1eba90fe9f4ccU, 0xdeaea0062da1eb15U, 0xf91778f100849cd4U,
  0x5f507a409c33108U, 0x22e7f67f7fb67f81U, 0x7f7f06ca7ffd9bffU, 0xd2f4ff7fbee625daU,
  0xf633287fd07f7f7fU, 0x7f7ff7e42917e59bU, 0xbdaf817fe39a9cd5U, 0x9359a77f7faa7f81U,
  0x81817fc0908ab29cU, 0x817fa4867f79b5ebU, 0xb984b07f8f818159U, 0x39eb157f81c0b62aU,
  0xbbb9e88181b97faeU, 0xdca47f7f8181b981U, 0x2626ba7f8c817f7fU, 0xd1147fcdb0a59aa1U,
  0x7fd8d68881ce197fU, 0x7f7ff4ca7f7f647fU, 0xd2937faf81c3997fU, 0x7f7f8191984edf95U,
  0xd1ed81bec8ff5f7fU, 0x307fb0efbe7fbe99U, 0x817fc8c3a2ce6291U, 0xdcadda91817f7f81U,
  0xb3afc8d079ea1698U, 0xee13f30710f1c5beU, 0xd1001481f40da87fU, 0x1313f1e5e681f77fU,
  0xeef9c999dde1d4fcU, 0xa5f56d0ef8dfb43cU, 0xa30eb63937f6ddecU, 0x7fff11f1e04ad722U,
  0x812d9f31d2c6eefdU, 0xa3a8de7fde7ffc7fU, 0xdf6a7fff267ff20eU, 0xfe0b81f70be1b7e3U,
  0xf9fb017f107fff1bU, 0x1aefe37efbb699adU, 0xa38df57fb7fefd1fU, 0xaefdf5937fc7027fU,
  0xf02b14bf7fbe5ff5U, 0x96d4fded1910e2d0U, 0x9c1215f212111019U, 0xebdaf2f60e040117U,
  0x9c1efdd7fae4390eU, 0x3e9ee07edf0fde9U, 0xc3d09f60ce516eeU, 0xaf0edf2090824d7U,
  0xb2fdca0423f2d90aU, 0xedfdf1f10545280aU, 0xdfd9f1f62000d6e4U, 0x12dff7dd1a05fefeU,
  0xcff7040209f0eb00U, 0xe3070e15b4d3e4f0U, 0x19eff60d0e0f0610U, 0x7e5e811128118c5U,
  0x2217090416090510U, 0xcef2021cfc180007U, 0x3dc41b35ffebf118U, 0x1400f9fdfef7dbf7U,
  0xddfd84d9497fbfd9U, 0xd781f3073edcf075U, 0xfc0e11bf02f1cbd9U, 0x180f7f810116a9f6U,
  0xc9e2f3ac7fd9c3f2U, 0x7f9cf00c087fe75dU, 0xa87fa01c1bc4fd7fU, 0xf37f1e03d6a97f21U,
  0xfe818cbcf4d6f5d8U, 0xf796bced7ff5e0e9U, 0xf193dfef2af2d429U, 0xfb16f17fe3cc7fd1U,
  0x7fc30bde23e91812U, 0xfcfa0fb6f6f1fa87U, 0xfced03e80671252dU, 0xb605d4f8e3f3daeeU,
  0xe3d7d7e6cc1014e7U, 0xf0f4b2f31020ee98U, 0x95f6fdf4570be3fdU, 0xf2eaf0f72b07f71bU,
  0x532308e2f5f40911U, 0xedc0302f1b5f31eU, 0x2f4ff0109f1e481U, 0xdef14fd0014e77fU,
  0xd008c7ff22f6df0dU, 0x140af8fc09212811U, 0x10ec0503f8efd8adU, 0xfedbf52c1112010eU,
  0xcfd216001411ecffU, 0x2701f91ac9e2f1ebU, 0xafaf92912190212U, 0x3e6eafeff9df7b4U,
  0xefe9f717e81c0626U, 0x81eafaf21220f2ffU, 0x40cafad72930f2dbU, 0xf004e3f70bfedafbU,
  0xa9ffffffe40U, 0xffffe3f5fffffae6U, 0x35b000000464U, 0xaa41fffffdfbU,
  0xfffffa240000008bU, 0xffffdd7dfffffb43U, 0xffffebe4fffff026U, 0xffffff4e0000061dU,
  0xfffffab1000000a1U, 0xfffffc24ffffffd2U, 0xffffca5000007660U, 0x43b8ffffe526U,
  0xffffffba00000629U, 0x1e2a000002bbU, 0x85700003984U, 0x1cffffc83aU,
  0x39a3ffffe254U, 0xffffff5200003793U, 0xfffffad800005adbU, 0xfffffb35fffff6fcU,
  0x8d0ffffdb8aU, 0xfffffc30fffffabdU, 0x120ffffd3b2U, 0xffffdbfafffff998U,
  0xfffff3c8fffff971U, 0x753fffffc4cU, 0x47a7fffffc14U, 0x551affffed96U,
  0xfffff5c200000241U, 0x3258fffffd79U, 0xffffd7ce00005427U, 0xffffff72fffff409U,
  0xf300009033U, 0xfffff0e500006b57U, 0x48adffffe1cdU, 0xfffffdd6fffffc51U,
  0xfffff942000003d2U, 0x45cfffff200U, 0x813fffffa58U, 0xfffff67e000061f4U,
  0xfffff874ffffec41U, 0x1115fffffe8bU, 0xfffff3f70000096dU, 0x3555fffff227U,
  0x4938000047b7U, 0x614c0000e8cbU, 0x43afffffa01U, 0xffffd088ffffcda1U,
  0x15d1ffffea00U, 0xfffff478fffff0caU, 0xfffff089fffffd5bU, 0xfffffc5d00000386U,
  0xfffffde900006646U, 0xfffff3cb00003d54U, 0x3ae000005e34U, 0xffffef0600002afeU,
  0x50d5ffffe31dU, 0xfffff4b5fffffeeaU, 0xfffffdc6fffffebbU, 0xfffffad7fffffb2bU,
  0x3f9fffffdbcU, 0xfffff4620000152cU, 0xfffffbf0fffffa84U, 0x4c06ffffe8a6U,
  0xfffff2a700000655U, 0xfffffcf90000626cU, 0x7b0fffff5aeU, 0xffffe5fbfffffc32U,
  0xdc80000553dU, 0xfffffc42fffffab6U, 0xfffff8d1fffffa0eU, 0xfffffe26ffffff5dU,
  0x1dd608f8071344d6U, 0xfc07d4fe16ecd302U, 0xf8f30ffb1ff2fb05U, 0x16dfe40707e8f337U,
  0x11ceef300e121404U, 0x9e9ee15d8ee0af2U, 0xbe0e15f346fb00e7U, 0x305d910fe4c5404U,
  0x1ff8fd10f2f40710U, 0xedf8eb12f7cc1ce9U, 0xbbfcf113d6f7f1feU, 0x150acfcc251ae281U,
  0xe9f40c0104050406U, 0xfbf7f7f627bad0fcU, 0xf909f815e0eb0127U, 0x41f6e70cf80cdf0cU,
  0xde4c71df0210204U, 0x16e10721e1ef012bU, 0x5fedcef1360e803U, 0xe823e318fa720326U,
  0xf8e709e2eef320f0U, 0x2d0259f9101309f2U, 0x5fee262518e80c0dU, 0x1c4b29def35be20fU,
  0x92dde18e73fdb7fU, 0xe8080bdfee152d11U, 0x171fef3219f5fd0cU, 0xe7f3dd0659f636f4U,
  0xd29d9d900ff10f2U, 0xf9f53202f8d8fcU, 0x735fddff28e2fcceU, 0xe9050012d402e7ddU,
  0x1a0bf8ea444b1103U, 0xf1eb37f1daf716eaU, 0xc8f8f3eb210ff6d1U, 0xf0e13755e1f5f8fdU,
  0x2f32d108f5fdd60eU, 0xf3fc3e5ee7fe00b4U, 0xfdc0530f0c506eaU, 0xf8f1133c040e1d39U,
  0xb02bdef726e0f803U, 0x16f61eef32d20f46U, 0x40ee30b493d0a04U, 0xecde51da1aafee57U,
  0xfd2216bc04fde0f6U, 0xeeea09d0faedee11U, 0x453df8ad1adfedfeU, 0x120fef0ad56a1914U,
  0x1cf5d1e6e60c36e0U, 0x81f3f0fed4f0efb4U, 0x21f7c8d042104fdbU, 0x11160a1111fbff19U,
  0xd70629f4e4cebe11U, 0x1fd8d538f6e6e5dfU, 0x6ef01506d00208b7U, 0xca21251a1f20410fU,
  0xc3fdff0fdd21e1deU, 0x2046fc4c91cd14f6U, 0xfe3f0d289d567f20U, 0x722410dc420ac5f3U,
  0x19f3e52204021f47U, 0xe9fa1078260cc8d0U, 0x191614c2ef3a039bU, 0x2425221a2823f744U,
  0x68222beb0d1cfdeeU, 0x7eeaed0112e60e0aU, 0xba16c01a3c1eedfcU, 0x6dd310ce1183446U,
  0xdef030db0eef47d6U, 0xe3429f9fb6a06f5U, 0xe82721d2efe52208U, 0xfaffd7c40dec0118U,
  0x1bfb223fb5fbd4fcU, 0x32a6160014f84730U, 0xea26f5baec08e3fcU, 0xaccefeecfa23102bU,
  0x961fa4be20ab06ffU, 0xff1119cb469805d4U, 0x60dff0234ed02e1U, 0xe5fef09dd2baabdeU,
  0x29da19f4380f343bU, 0xdacc27b811fae5c4U, 0x47e3e9bee9b11deeU, 0xfed3dd38f5f0053bU,
  0xdcb092e12c3112aU, 0x50dd2a13f17ff11aU, 0x40dfe0a2bcc10c4U, 0xeacadae40dd4e6deU,
  0x4d430beb00bf2e2eU, 0xdfcb012dce16e810U, 0x163c1a5504e60a30U, 0xff213b1ee3f331f7U,
  0xe5e6f8ddeed9f6f5U, 0xf029d54ecf23cf26U, 0xf635daf29ad05612U, 0x92c52054344feb3U,
  0x1adf1de4cde83a0fU, 0x23ffcdf1dc4022deU, 0x17f952eebc273939U, 0xf4ebf935f0e2c7fcU,
  0xe645d9d1072edb0aU, 0xb24f03566d9dbd3U, 0xe21cd2cf21050847U, 0x2bf95ae2d11d0bf4U,
  0x18f67f2251f85fc4U, 0x14600c4ceb2c1beaU, 0xe2413eb1bfaffeaU, 0xfff527dbc3d7d661U,
  0xe200054a1ed7fdf7U, 0xf15d10481fae7ffU, 0xe70f1d00fa0422f1U, 0x4f121fe8e710f515U,
  0xeefef810f1170203U, 0xd5e6f6fcd5fa03fdU, 0x280dc60bbf20d8ecU, 0xf3ee1e5eedfcf627U,
  0xebeef12009183615U, 0xd6bee4fafffdf00cU, 0xd724eb2821f4f7d5U, 0x62cee070ff832e8U,
  0xecfdceef09f1f8cbU, 0xf7ab13fc0ccf03deU, 0x5f1ed4ee06d9c8f5U, 0xdcb5bb203a9ff02U,
  0xed12f9f2e2042be9U, 0x818b31be003f9fdU, 0xf607f31601ebd7ffU, 0xd6c7da22f5ea2ee5U,
  0xe1fee042fcede522U, 0xb209c9100ff90a2bU, 0x24fc3261e87fdf05U, 0x3606ae1dc3f82342U,
  0xfed92cf9b5e3f8deU, 0x15d759601e0b1029U, 0xf8e3d418261dc7abU, 0xc0d811f5c6f2ec2bU,
  0xfede263316c818cdU, 0xeadb20192e3aecd7U, 0x2fc5812acbcd7d4U, 0xbe806be21bcf0d2U,
  0x8f2fa1004040301U, 0xea0b373128f7f709U, 0xe600b64df5ed1a1aU, 0x1efde0f7f1275e1bU,
  0xe0fae6f0f5f6c0eaU, 0x97f30e05e11ae04dU, 0xfb43fc4dcdf34b25U, 0xaf524dfc52e8d205U,
  0x380d1a2c33130247U, 0x690d144ecddf265bU, 0xb7fd1739810a2511U, 0xf5131f2a03b633e0U,
  0x1e3bd3a1f524fad3U, 0xd5e9bf020ce60ef0U, 0xbdcf0e0b2d428a4U, 0x17b9452300050551U,
  0x21e957e0f39b8de2U, 0xc9f21c29e7292cdfU, 0x7e3e2c73fc6a01aU, 0x14d22ced27e7d7fcU,
  0x2746f22cebd4fee3U, 0x30e390ce102a8c3U, 0xf59cfd06e605ffafU, 0x11262b15d6d119ffU,
  0xdcdce71705fcd9f2U, 0xff00fc14eb0f00a7U, 0xfce18bf319150b24U, 0xe0e8a1510ed8df0cU,
  0x1cccfe12fb0118f7U, 0x9b08ef0d3527eef4U, 0xfa142eb3a329e304U, 0x99e40181f7adf78bU,
  0x18e1c419fca806f7U, 0xd36a6de0df5ff2dU, 0xedc525bc04cd041fU, 0xf2e80d18cbfe85f0U,
  0xbf9516b40ffddbf9U, 0x3d3d25cfd723ecdcU, 0x381ef9d2c3ea3eecU, 0xb7cd01df16ecf5fbU,
  0xde1df6f70704f2ddU, 0xc3b8261539f4e9ccU, 0xcfcad400e205f93cU, 0x3fbbd0c09cfef21U,
  0x230b1b1006ecfb1aU, 0xe2f71409eefdf9ddU, 0xe6ec3b243c110110U, 0x15cf00cf1912eeU,
  0x8d7f4c7f2f3f3f7U, 0x1822011bf501b92fU, 0xebe4fcf915250ff2U, 0xef1df1fa437f2718U,
  0x9ecefd504360c3aU, 0x60de4e8e5fffbdbU, 0x1c0bbceff42c20edU, 0xeef5d30c13041618U,
  0xf42ad300e508fdfbU, 0xf0d523a1fcae1c21U, 0xff001704f7eb10e7U, 0xc5ea1ef2f0d9f37fU,
  0x1c15f43ffe16f915U, 0x1227ea1405f5e6ecU, 0x3f7dbe0200a0a1aU, 0xe4031511d91c0911U,
  0x30e4fa06f4ab18U, 0x1cfc07144405eeb9U, 0xf7e9f905e331fdd8U, 0x5f8d9e30a0cf9fbU,
  0x15edfef3f5213aaaU, 0xfdfbe322f21a10e5U, 0xd30d06eaebeb01e5U, 0xf6063309f3dff7f5U,
  0x1fb14fa29330114U, 0xef3df306070ac3ebU, 0x14f60101efee1e16U, 0xfd0cfa130504ec08U,
  0x3e9346c05d2743bU, 0xe8c6b9d094b7266cU, 0xdf7e81b0d1aee28U, 0x3025fc0f742d705U,
  0xdbdbe7a744d41309U, 0xd7f220fce58326U, 0x22d6c2e5f9d8e50fU, 0x372b0613d4a185fbU,
  0xc7aa1d3f2eb9ea03U, 0xd102b8e202cf06d8U, 0x5ee11aee301537bdU, 0x73ce2fdf3c6582eU,
  0xa60a160bf2c33509U, 0x50e1cf031c13c2f9U, 0x1db90f25c71f2f93U, 0x410265b8241c810aU,
  0x29a5e4f6ed1d32eeU, 0xda4befe2b02f1ebeU, 0x20fa25e7e9fb0c03U, 0xba2d1bf8dcee3047U,
  0x40f0001bbbd01810U, 0xfebdd2337f3db710U, 0x13dcf424fe1c0b0cU, 0x30648eeb806b132U,
  0xf51f09f2ead24a14U, 0x21d9dd0df7c9fb1fU, 0xb1193d57102e4d03U, 0xb0fa2ee209430617U,
  0x3d519ac25f50df3U, 0xfdeadc0a402b1f6cU, 0xd6dec332eaaeda13U, 0xfd4d16eace130735U,
  0xdbeddaf636fb5e5cU, 0x38d7c8f60b03c7e4U, 0x3d44f205e79f300dU, 0xc71bf7e961cf5f1bU,
  0xeb0b1a1e21fcf1d9U, 0xd8f30ee82415deceU, 0xeff3091607182a06U, 0xeae900b7fffc0be3U,
  0x607150a0117f2e4U, 0xfdf2210c161e0103U, 0x150bf510f8e81cf7U, 0x1713200628010a05U,
  0xe8e4ebc8f5f81003U, 0x191e29290f0dde2eU, 0x10f6280a0137e4f0U, 0x10f4020eac0af813U,
  0xf9e7fbf5fb37f1faU, 0xfce2dc00e7120411U, 0x50c0a19e7181ef1U, 0xeef4f2e8ff0f1406U,
  0xee3ffe12380be7e8U, 0xfb0ddcf5e40681f6U, 0xf9291c8348c4dce5U, 0x2fe00f49f5ab03b7U,
  0xe3b014184e353a06U, 0xc9372b1bc841d26eU, 0xad0afa1bf0e9010dU, 0xfa0fde5ab5815613U,
  0x33a5f461cc1eddd7U, 0x13d30827e3d9dbefU, 0x21b24af4a21ce6e6U, 0xc31207b4c4e6d5d7U,
  0x1ccd2aa499eb1835U, 0xd1eb32f0e407e7d8U, 0x3d83815ecd22212U, 0x837bb00e726dce7U,
  0xece6dce0da9afb1fU, 0xbeefa2af5cba512U, 0xc51a0cd41241f1e5U, 0x34fcedf5ff28d7e9U,
  0x1100f6ffd5023cf0U, 0x302f03fc0ffa061eU, 0xf10bf0d15512ff48U, 0xdd171febfc0ff315U,
  0x717f4d91be1070cU, 0x321de0ee413dc0cU, 0xd70beb21210dfcf9U, 0x16e309f4f7050ef5U,
  0x13110c03fdc8e40aU, 0xe7dff4ed0f1352ffU, 0x9071af1e2fe13faU, 0xedc50ced038121a5U,
  0xf5fb2e0beef7f1faU, 0x14f8fb05edf4e3dbU, 0xc0f04e413e6fbedU, 0xfdfc06f208f5cff9U,
  0xc24fc0ed9fc0631U, 0x71c00e6e9f30d0eU, 0xe4ed1912f9ed0908U, 0xd324fe1ff9c542e9U,
  0xc9e3091df8221024U, 0xef29f1fa2ae2fa18U, 0x2af50511dda835edU, 0x9f4061cd1f215f7U,
  0x2c28110eb516f7efU, 0xef00eef6ef1c4707U, 0x17d508ec14e8cb7fU, 0xf0be7171eebee10U,
  0xb5dfeb603902f5e3U, 0x1a1516fef911fcfaU, 0x150b44d5b1223f1dU, 0x181bdad21cc0fa49U,
  0x4ebf0e8d528c91aU, 0x31002309ecb62010U, 0xb90fd12335e4eac1U, 0x150ffc36d2e13aeaU,
  0xb605c50901cef7f9U, 0xf4010e10f7fa2422U, 0xf0dbee1c46193a1aU, 0xd8f8fc01ea15050dU,
  0xec70d2a2c04f519U, 0x1290ff5c5ed2036U, 0xd00b0610a7ff1bfeU, 0xfe05fd18ff3b3be6U,
  0xdb0df11419fd0b1bU, 0x4020a3aeaf649f7U, 0x81111942fc18110aU, 0xfae106fe1f2efeb9U,
  0xf50f23fce8d8f9e8U, 0x13f8fdd5529d1a22U, 0xf9fe0a0314f80906U, 0xf9f121110df90008U,
  0x10fbe109241de039U, 0x931fc16edfe21faU, 0xbf3c919fccdd92cU, 0x2524e8ede8e5192dU,
  0xc3f4e114101500feU, 0xca2745064bf031e6U, 0x1e2e22d0a18f926U, 0x2f04dc1cc0ced809U,
  0x240324f7a4ff090eU, 0xde01181cb7f9f021U, 0xd8f52921d5f30f02U, 0xd841f6e002c281caU,
  0x7c1d400bffde81aU, 0xeefbd9d2c62b0e0cU, 0xf10f00f9bfcbfd06U, 0xee0bebe8d00fb803U,
  0x19f615fcf5d6f3e1U, 0x1e26010218e5c01cU, 0x81ac418b82822c7U, 0xf5d903b2eb0cb8f9U,
  0xd407163a42152a44U, 0x160313d11715ebfbU, 0x4051bf81c27cff9U, 0xd80138c4b20d510dU,
  0xff808e9f31c98fdU, 0xc032fc182ce6dd26U, 0xf805dfc5ec3cf23dU, 0xe6fbd33cc521e609U,
  0xa1c230fd6a2f8fdU, 0x37d7f0fbf416dffcU, 0x80edafc2903bce6U, 0x81fe02020eea00e9U,
  0xfaeedd0c2cee1f31U, 0x15b9f4f2c6070351U, 0x30f8efec1be108deU, 0xecb860fdf7fd1604U,
  0x1800bbede9069f0aU, 0xdad8ed13f5d2101eU, 0xe5f0d4be0cfddae1U, 0x138128e2162bcbc4U,
  0xe09dd63605041428U, 0xa3d613f9b49dc006U, 0xa8e391b60c1db409U, 0xe4cd4f0b2f17162dU,
  0xce0bcfc934c5f8a4U, 0x1d0de4ffd7b3e3e3U, 0x3007f0c208d79a25U, 0x4623e2ba4bbf16b1U,
  0x4a240196e90bf931U, 0x30b6ea10d0693ad2U, 0xcca55a1c02c2347U, 0xf2091831e93aecb1U,
  0xa3bff0f73a325311U, 0xee0ddcd3b641bc1fU, 0x96e84bb9e519150fU, 0xddcb0ee4051de1ffU,
  0x25e90c152ab4fc02U, 0xeac81d0e00dbfcf8U, 0xdfccf314b403f7fdU, 0x3bdfc1d0cf4e414U,
  0xecdffe76e5f01919U, 0x5f6faf59ff9f60aU, 0x2afc0b2c81c7f8fdU, 0x1b21e5171913f00fU,
  0x231419ea0329ed3dU, 0xf3fd54f1d721f8ddU, 0xeadf0b0610ed1c02U, 0x414fdee17e4c622U,
  0xe8e8f01f1af4e1f0U, 0x11093023d30bfe1cU, 0x80cb72907ddf2eaU, 0xcdfe0f2fee9e2f9U,
  0xb20ccbd80317e6e0U, 0xee28fffc00d7e012U, 0x2dd5fa0c270241d1U, 0x1c460efcebdef3d7U,
  0x1d2830aaf308d0d7U, 0x1ad71bdbc2bd37d3U, 0xe3d13688d0eafda8U, 0xb546f8b9182cc600U,
  0xea07d14514d20aU, 0xebd0e8eec336f00eU, 0x4cde8eac3f813bdU, 0xf3f01d1508feb811U,
  0xfb4a43eb0f16e0eaU, 0xe004bcf016a913daU, 0xea17ae31d71037d2U, 0xb0ad810ddf01082dU,
  0xc90831ffdef30709U, 0xd6e226fff73e3920U, 0x32090604041ae5ceU, 0xefddddb6facb1627U,
  0xffffab6f00004219U, 0xffff9d6bffffc9bfU, 0xffffc64600001cbcU, 0x564e00003b2fU,
  0x71af000030b0U, 0x1a88ffffc1b7U, 0xffff88f1ffffe6fdU, 0x9dfdfffffa09U,
  0xfffffb0500005f39U, 0x50bf0000174aU, 0xffffecd30000074bU, 0x7ac700001dfcU,
  0x18dff02d0f05e692U, 0xa3cc4dfd7fd5d8feU, 0x33d9122f83b21ffU, 0x3dce450fef0cbf4U,
  0xdaf4ddec7fc6fdc6U, 0xe3dcf12d14c6f60dU, 0xcebf16819aa9def6U, 0xe57ecf1751d0025U,
  0xf5421e1e14a4e2eaU, 0x7fa014f33d30d015U, 0xf72904e123f1041eU, 0xfb2e4c5518e7f7e4U,
  0x2b02030ef0e7000dU, 0xf8046c1a7f1d4cd5U, 0x18ff08e1f3e01d10U, 0xbc3d13bbc8a72038U,
  0x13cd5d232ecb1ce7U, 0xde0ba381120814c5U, 0x1fdeebe4f0a4ea07U, 0xb40332f3065cfa4cU,
  0x1dfc4e6d68115d0U, 0xfef4fcf9ed03fe15U, 0xf1e7120df8e507faU, 0x9ec0d13f67fe50aU,
  0xedce2a2e16b3f9faU, 0x7f58bd33263f2a08U, 0xe46c0edf3748e1c8U, 0xdf243f47d915e325U,
  0x32c40aec7fe217fdU, 0xfaf80cf1ef1e2a0fU, 0x370cf4793f07323aU, 0x2d3cf95d1a3dca7fU,
  0xd733db0d0efb4abeU, 0xf5f34d87ff7fc095U, 0xbb153ad57f2f2310U, 0xdc156b75beafcfeU,
  0xce90921fee80105U, 0x1081ed3becf8fbfbU, 0xc24be112114df3d5U, 0xcefbedfd1cf5721bU,
  0xc47ff6cff50687c2U, 0x29f303de34f0b7ffU, 0xfe0cca7f2a33d856U, 0x9a5a794c22fcb688U,
  0x829ff1400f4abd40U, 0xe3fea9ea07174b1fU, 0x2f9a0ef5816dca21U, 0xfac70946c1ef2bbcU,
  0x4c4e3e00100cbd2U, 0x708e513cd133ef1U, 0x20414126c9ca7fe5U, 0xd27f0512140408d1U,
  0xd47a3272bef04c2U, 0x1dce08f9cfe02bf2U, 0xe90061c525443310U, 0x39c82f2a1bfacbb8U,
  0x7f43c301d80dfcd8U, 0xe008f413f27ffdd6U, 0xc3e515cceae9ad0cU, 0x48d9fb1f210df1d5U,
  0x481f7ab2523e3c0U, 0xa90cf1ca621021f6U, 0xef16ebe108dae8f8U, 0x26237cdec0c75a39U,
  0xbbe7d381080feccdU, 0x2741bfcdb1aa1dcdU, 0x34fbe326e4353f1dU, 0x7fdff4b702091c1bU,
  0xdd0d2ffbeef1fe05U, 0x4b1d2c0c0f7f4722U, 0x2ce22aade10cbdc8U, 0x6efa2e1e23d0103U,
  0x1f266ce14e2b07edU, 0xe639e426eef2e0ccU, 0x1ce8d7f3b04481bdU, 0xf9210cf8de256518U,
  0x7ff405eac71ce1ffU, 0x40b20a00fddeeffU, 0xe93781972afddeebU, 0x18f9421acb6f541aU,
  0x3873302900635f1bU, 0xf84dc1f6c14413d5U, 0xf3c1dcfff704c2e6U, 0xd01e881de2df2feU,
  0xe51fde33240d3721U, 0x320f22aedafafc34U, 0xf44c92043c7f36e7U, 0xd0fbd38f0e02f2aU,
  0xc81607150bcf81e8U, 0xed92f90220c60241U, 0x10cde867e839fce3U, 0x22fb3637dbb8e2a7U,
  0xcf417f001c2b9e22U, 0x55780022157f0206U, 0x521424326e8a538U, 0xddacf6fb1869fa55U,
  0xedff4d5f4ca3a00U, 0xdc2b05ed68125f18U, 0x27f44fee5c0d2eeU, 0xad0b7f35f70100c0U,
  0x6988eef254fff2deU, 0x2cd9d01c0f021c0eU, 0x9d5ea038d07f333fU, 0x1beb2cfc9cf2d8efU,
  0x48cfcccdc90910f8U, 0xc0eec90ee4040bf8U, 0xb3522502edf381b6U, 0x6bc2dd508185179U,
  0x1ffb34237c40ff79U, 0x1935b01be3120e4cU, 0x9c6303c07f115830U, 0xc51e52e6ab304f09U,
  0x1aa57f10495de010U, 0x409227532deb3b0cU, 0x390309fdd95901eeU, 0x39070381db29f8edU,
  0x8e700f2f3c3f4ecU, 0xe3fc33153808ce11U, 0xec4602bd5f0d27c4U, 0x7f1114d5c6f0e1d5U,
  0xd120baba01f3ddU, 0x47050f0ad94f2ddcU, 0xf61d1d3a3f29819dU, 0xcf10591a7f00f453U,
  0x803e9de1d3e366aU, 0xeafaf8fa1df3fddaU, 0xea0703ff0315f706U, 0xf8f30b01fce5faf2U,
  0x606150a017fe6e3U, 0x207febe7e15a1ec9U, 0xb8c443432316ebccU, 0xd3e2d28ff853e9ffU,
  0x14000a3b212fe4f1U, 0xf207301102cb2326U, 0x13f90800eb7fc62bU, 0x29e47fafd5ece0bcU,
  0x1e2aaecfe22940d9U, 0x19330d7c01debf1eU, 0xc9e57fda08e61be9U, 0xe82f03042b3e0709U,
  0xfef6050ad41cf4f7U, 0xc9f9f5d0f3c0f4c4U, 0xf21197f2ee9cd03U, 0xf5350704e4fb361bU,
  0x59e1fa7f22d90c24U, 0xe7cfffe09bd1cbb3U, 0xbf4fdaf62e54f3f2U, 0xf6040e010500e715U,
  0x10e0014fffbfbU, 0x13061008f57ffd21U, 0xb6567fff132bdcf7U, 0x9c1c431bb391398U,
  0x11011fe5db36f4e0U, 0xfb28142a7f5b0f23U, 0xfaf925dffe11c70bU, 0x30fae98bd22246acU,
  0x45fb7181d01e17e1U, 0x35611cda8d1ec632U, 0xac1f0dc1425221e4U, 0x110006de22cc4f02U,
  0xa93fddaadd4490ffU, 0x7fdcd15b86171dd1U, 0xc08ffc40634ab20U, 0x27fdfbc36e31ff4U,
  0xfcf4e6121de6fb02U, 0xe46d8c0381f5612cU, 0x323c29e6f5f8adf9U, 0xfaccdd08eedcd31fU,
  0xe4f6feb306b6dd77U, 0xe7381515ba081cf0U, 0xfc49e0354481c1bfU, 0xd3f5f4331272c7c3U,
  0x55958ee75f2eaf9U, 0x1eaf321781d5f624U, 0xdf1a81eae24ad936U, 0x3e5f21d128fe1740U,
  0x2115e32310fac09cU, 0x3cf8ff167ffde31fU, 0x7aa19feeec6dbf6U, 0x26b3e5b2e0090721U,
  0xddb67ff20fbd0711U, 0xd9d5f9233b051715U, 0xfe4a03fd0fe7e8ebU, 0xad816d0e8d1b0211U,
  0x3812cac9012dffecU, 0xcf1726e50d0254d7U, 0xfce15e23dc2e3d0U, 0x9817cf3d2c247f15U,
  0xf80b0f23c4d00c31U, 0x12dc09500af2340eU, 0x691702e50c1a1059U, 0xde26157f1c373efbU,
  0x9b62233a1654060aU, 0xc8567f44cbe4d821U, 0x7d3c0e24a1291faU, 0xa76e9cf25287de9U,
  0xf610d81f0681b6aaU, 0xb5fbd6052a579dd7U, 0xb2b853ddff812914U, 0xe977b367fb3ac3e6U,
  0x1583a4631c7fdb8U, 0xebe8271c9b12dfdaU, 0x7fb9c415dedbdfc0U, 0xfbc8d60a53ef50fdU,
  0xcdd7330333c55a81U, 0xe323337bafbfe000U, 0x17140819d05bde09U, 0xa58121db6ffc3e28U,
  0xe5c6d51f22054051U, 0x359bedbc270e6cf4U, 0x71fb810d616ec7fU, 0xf132e27c73af237U,
  0x804310df113fa05U, 0xf1002fcf901150cU, 0xf7ec2bf0fe100ffbU, 0x4d0f7fe078104fdU,
  0xbfb08c6fbd53b1cU, 0xe26ddd24090ae6f1U, 0x1c7f11f413bcfb16U, 0xf90e03f47f07fd16U,
  0x11afadc02f90719U, 0x1e2beec212103c0dU, 0x17ebe8f7f1e3e61cU, 0xf41ef202d2faeefdU,
  0x4f305f0137ffffbU, 0xdc2a811a39d8e254U, 0x51ef0536fee81663U, 0xdfba27d028e21c01U,
  0x141e13d709ddfa0dU, 0x2042a38ad15f0ecU, 0xef14e2147f1a1218U, 0x1bbe2cb72e0636d8U,
  0xfe75c4caecc1f1eaU, 0x55192e90c013b681U, 0xeece29283027ed2fU, 0x1600e0ffe3fd3681U,
  0xeee1c22308a7ce18U, 0xb3e0482ee3210b81U, 0x38c5c2348dd419e7U, 0xae14823c51ae12aU,
  0x337c7027f2d3857U, 0xfbfde3d3cd460443U, 0xcc382da43bf42a10U, 0xc51d3b0406d5f0f5U,
  0x5bf5b70381310613U, 0x4e2fee049f2ede4U, 0xfa3732e6ff7f3105U, 0xebd4e1d0dc0514c8U,
  0x302e02c6ec44a3fdU, 0x14a50ddfcff0cde6U, 0x21a1c4814828b10eU, 0xf9180c0d65c6f015U,
  0x550812f370f4a1fU, 0xb9d0614a1e6de0dU, 0xa2e6ffca0624c31eU, 0x4721d2150960d638U,
  0x390d6abfeed60c7fU, 0xea05d0d92921b500U, 0x2551428138f92dfcU, 0xe914e4ddc945ddc9U,
  0x3430efdfde1cafe5U, 0x4ebd56e52bd740d2U, 0xdf8114199018ba1dU, 0x3408fb2e031aee04U,
  0x37c238177f06135cU, 0xbbd4e0d8e1c60024U, 0x1b19e393e4ec6855U, 0x1f0710f181eae0c2U,
  0xc3542838e1faccU, 0xdaf505390613e3e3U, 0x3ced12edeefa307fU, 0xd4f973ecec4e0a21U,
  0xfe121b2727f62f27U, 0xe200fc047f180923U, 0xd504f8e6f007f808U, 0x1a14da9805f51ce4U,
  0x191ae2d3e911a87fU, 0xc5ed62eb11a2ff3U, 0x70b64c19debc42c9U, 0xa93f7f03ea0b0010U,
  0x2f22c2edbb5728f4U, 0x1708d04821f314U, 0xb0cf9461b0de247fU, 0x5ade33ce9cd1c408U,
  0x694c53e2b5d4eb1eU, 0x3727ab811bda5b23U, 0x492047fdff22cf45U, 0x37eaae2bfb205ff9U,
  0xf622260316e2c401U, 0x18b126f4ee01e5dfU, 0x7fc006f405328ccdU, 0x1e1c0bd3de240fe7U,
  0xec387907bd0dfcfdU, 0x87f07d614256a92U, 0xfd29e1a726e1f3f2U, 0xdfe2086fe3bf1305U,
  0x2a0af5fe0879813eU, 0x141324220f3adae4U, 0xff02f4e7f1d043eU, 0x9bf8f9f6642de33fU,
  0xce2dfc2c32cf7f1eU, 0xd53dc63fc3b9dbe5U, 0xff1ef2fde8d8e712U, 0x92231afbe90ac20bU,
  0xed3b7f05222a0782U, 0xdd621082e0b2707U, 0x3effb90de4f7383aU, 0x12f5311ff314256aU,
  0xc83cd5fe7ff2eeefU, 0xe5c95507226833faU, 0xa26dda8113f54ae8U, 0xc471233ff11d471dU,
  0xfcf12946f6812005U, 0xe0da251bdfe7f649U, 0x1e619ebc1f8ce29U, 0xd246e5533ccd8ab4U,
  0x2aea001a8836814eU, 0xecf4f452e6f3e717U, 0xe2f104d39aedeed5U, 0xf4e9f7d5d7060edfU,
  0xf3e4c881e34bee12U, 0x63e68147f93fff0eU, 0x1b4576eef8f7063aU, 0xc422bd174d082f1dU,
  0xffd306a5f93ddff5U, 0xb27f0fdb5ef612f8U, 0x3803eaef0627f4faU, 0x1107f70afcfcf914U,
  0xedf70dfc07e6f3f7U, 0xc0df5037ffd10U, 0xdbe805f7edeec30eU, 0x8bb161c351b150bU,
  0x681e32ce040ef16U, 0xcb9c6321cbf6eba7U, 0xe981b99e09107aa2U, 0x4419d4e3d981bbd2U,
  0x3439fac1cc2da802U, 0x347408d2ed7f432bU, 0xaeede63af929d8abU, 0xce4b400681d9f82aU,
  0x14f8a39d270ec47U, 0xc653d6c4e12c46f5U, 0xc5fd7fdf31a01542U, 0x2756b6f4f6e1f7f6U,
  0x12ec9e08c70a00fcU, 0x5dd6b6f5043581e3U, 0x6832d78bf2f12d05U, 0x4dbadde01dcaaa05U,
  0x26ef10ed9cf4eeebU, 0x1faff423cc0ed681U, 0xf407f46737bdbb33U, 0x13e9100a131ce22eU,
  0xdf17c40af7084fe3U, 0xd5fdf6f52281fcefU, 0xb1914ee0e23e40aU, 0xfecafae610eff7b7U,
  0x7fdbf3dee220f8f2U, 0x81dddca10fe903f6U, 0xc615ce4477ab26c4U, 0x50b7b83058ead41dU,
  0x1830699f10282204U, 0xe2f5fff63ffe1f0dU, 0x572764d4838102d2U, 0xcec6f5f5258140cdU,
  0x20188220e0061afbU, 0xdd7f2516220f203U, 0x19fec33609f7f1b2U, 0x812b5112f6d0e702U,
  0x1f11d330d3d909f2U, 0x2433fec74fe7f9eaU, 0xf60f18e432d0cff7U, 0x38f806c5061181e9U,
  0x7a1e03ce4d062120U, 0xf8270a58f7ecfa3dU, 0x20280ff91f2081e3U, 0x101ee314d1675d00U,
  0xdbd67351fd1fd5c3U, 0x7fc7effa2f4e03f3U, 0x81eb3f40110a5e27U, 0xcfe4fd56cae3c995U,
  0xe0ede6d525f591fcU, 0x49030616a936d900U, 0xe2b0d1819ab0f228U, 0xedd90712a3b0ca35U,
  0x151503efefef1e09U, 0xcb6e9eed81c0e6c4U, 0x1a16fe141ae427e0U, 0xfa2b081103491df6U,
  0xd40c7f062f0a3e0aU, 0xafc3501e428df46U, 0xc5b6bc60b9177ff0U, 0xe19b748a9a96ecbaU,
  0xfea82d1dde08461aU, 0x47186b810e1fd118U, 0x52eb4fee41517c00U, 0xf45be6a9db9929cbU,
  0xd5805e081301dc0U, 0xe1de65cf2220eca2U, 0xf1eea06ef6359b01U, 0x58f0d09840cdf703U,
  0xdbd5fa070bf3d00fU, 0xd96ff00e5fd8100U, 0x38262fd1b559fdfbU, 0x7f22c494bd56cce9U,
  0x880cb95302721a0dU, 0x815be53dfb1503e2U, 0xedd4031609ae2be6U, 0x9fdc1fce9013ffaU,
  0x44faa1529e4ddf6bU, 0x57813472d70f3a60U, 0x332ad325c8452b01U, 0x2dd3dd1f613dffdU,
  0xcd7f05b8672423f4U, 0xf513e407f7e007edU, 0x1ee8ed96df1e22c8U, 0x242d257541b61b0dU,
  0x32aef71ee9557fb9U, 0xf22cb834e181f5eaU, 0xf7163d2ab21e022fU, 0x7807e008321b35d7U,
  0x3381452ee0190712U, 0xe715f01506110237U, 0x27f5080ae6f911baU, 0xcedbf500eecbf9f4U,
  0x9fd1fa7ffe3bbafbU, 0x20d018eced103cb5U, 0x3e4f2a25f2811b1aU, 0xca3036c5a5dfdaecU,
  0xfc07d70ae2164ec4U, 0x5249545c6177e7c6U, 0x1a867fbe9dbbe2f9U, 0x26e3b4aa140c181dU,
  0x3d20fffffe07U, 0x39a7ffffe68aU, 0x10900003544U, 0x15adfffff223U,
  0x76900000f98U, 0xffffed7fffffebe9U, 0x38fffffb13U, 0x88b3000048e1U,
  0xffffec1d0000056eU, 0x32e1fffff20aU, 0x51a7000035b1U, 0xfffffb9300001c27U,
  0x207a00000c0aU, 0x26e90000162dU, 0xcb300002f9cU, 0x3dec00003bebU,
  0x131c00001717U, 0xa5d8000077a3U, 0x2d9c000044a3U, 0x185d00003c7dU,
  0x1943ffffd41aU, 0x3744000031e2U, 0x2e8800001399U, 0x403100000345U,
  0x149800004c89U, 0x1d300004116U, 0xffffe70ffffff29bU, 0xedc000044cdU,
  0x2cbf00007004U, 0x4b0f000004c7U, 0x45a900002f45U, 0x3106000026b2U,
  0x4e9fffffdd06U, 0x5e5e0001dbf1U, 0x329d00006c13U, 0x24b5fffffc40U,
  0x1c1900003378U, 0x59cd0000040cU, 0x2110000002d7U, 0x45210000041aU,
  0x59800001cd8U, 0x165600000f6dU, 0xfffff7b600002bbdU, 0xfffff9cffffff435U,
  0x1087000059a3U, 0xfffff35afffff31fU, 0x4f7800001a28U, 0x1ea70000535bU,
  0x3038000023efU, 0x3b5d00003ea7U, 0x395d00002a7cU, 0x545efffffb30U,
  0xf0f100002c6fU, 0x22cc000041c2U, 0x1255fffff7b9U, 0xfffff3740000383eU,
  0x4ad500004fb8U, 0x523b00000000U, 0xfffff6f900001284U, 0x346e00002332U,
  0x6b6b000077c9U, 0x1882fffffd62U, 0x3be200002ca2U, 0xfffffd3f00001163U,
  0x8273fffffe0aU, 0x26e300001803U, 0x21a2fffff7deU, 0x1dbd00003ce5U,
  0x511c00002e7cU, 0xfffffaaa000000b1U, 0x3000001f6eU, 0x9f17fffffec6U,
  0x4a339306e2eb2402U, 0xfc0c19f5e4dcd464U, 0x2fedfb09f7f729d8U, 0x7a4b31810d304ffU,
  0xc70426109a250810U, 0xfefbfd310ba66b0eU, 0xe7f5fe107f0e1533U, 0xf4080e0301180d1cU,
  0x1e2bdd0113040e1aU, 0xe109905150b2203U, 0xef11307d11706b1U, 0xe415e5f15d24ede2U,
  0xb08180b03f4f008U, 0xffb71906eef91302U, 0xbafa00e811032309U, 0x5f706403410fb02U,
  0x1ca1f3b8f6e31eeeU, 0x53309fc06e10c26U, 0xeb4a92f3a849722fU, 0xdee3f07fa685eb95U,
  0x39e4ea02f8191bafU, 0xf50dd51df681cf05U, 0x7fcb28bd84e81a0fU, 0xdd037f7feb81142eU,
  0x46ee43305c817f7fU, 0xc5f001d90576747fU, 0x7f7f95feeb14b37fU, 0xe060d53c21372ffU,
  0x272e9ff6b17f3895U, 0x94ef812312350f77U, 0xfd10ed1ae31cc8e7U, 0xcaa30d1de190f9d4U,
  0xf7a3199cdd157f7fU, 0xc9909ee9e02c22e4U, 0xc2e7fe5d6ab2e5ffU, 0xf7b951a1120ef9fcU,
  0xcc1ad00af9f01314U, 0x90c13f8d303cf47U, 0x11e706ef040c1ddfU, 0x55c8d0afce7fbfeU,
  0xb80d30facd000901U, 0xf5f717390fc61038U, 0xf3f7f010dd122a2fU, 0xea03f502f1051f22U,
  0x22271b0309f50f1aU, 0xc1b81fcf20a27f7U, 0x709170de2140a60U, 0xda05dde9c1022e96U,
  0xc000c08f9ed05U, 0xf7572a0a1c220dfeU, 0xb7f905def7f6211aU, 0xfe080141fa13fb0eU,
  0xc7f243d00e9f8f3U, 0xff3df6f6fde502e6U, 0x7f1a8188fc43f228U, 0xf97ff861a3b4f272U,
  0x1802ef7f81341fbbU, 0xd3f2b9117fa1f00fU, 0xecccfa8e93531fb5U, 0xf15a9853b2ae7f36U,
  0x3e02342f2fb00fd0U, 0x817f7b69547f05ebU, 0xea6476fd8dc6d832U, 0xe41d1930cb0cdbfeU,
  0xe127f935602163bU, 0x886cb40431157f24U, 0x7f1071fbcc19eeabU, 0xadd820fcbaafb4efU,
  0x57e914e15f02e681U, 0xe6d5da387f3511d2U, 0xdc4da92e0fdd8515U, 0x7f7fade70cf47f7fU,
  0xba7fa6efdd81127fU, 0x81b37f5c7f2a7f81U, 0x7f7fc5940d7f817fU, 0x99f7507fc90bad7fU,
  0x758181c8328181afU, 0x8181c3f9bf4e237fU, 0x81ba7f813eb29e93U, 0x500818181671291U,
  0x97547f81cd7c81eaU, 0x9a7f787f817f81a5U, 0x7f7fae7f3aad8118U, 0x81818d7f7f7f1d75U,
  0xae7fed8181467f9cU, 0x7fd38181ac818181U, 0x29c981d0817f89d0U, 0x9881c79fa37f7f81U,
  0xb31abc7f81be097fU, 0x944017e27f7ff1dbU, 0xf015a67fea40073eU, 0x5dbdf5518928d55eU,
  0xf2f4eeed60341bdfU, 0x7f11e61896b1f401U, 0xe0c0f57f81ff2da6U, 0xeb447d337fbad237U,
  0x2df4442f008c06cdU, 0x859ee77a1d680ae4U, 0xeb5856fb8181d32fU, 0x7f272424c816e17fU,
  0x163475996002022cU, 0xb7f6c2081c04e481U, 0xf817810ddf25ee7fU, 0xbc491fec7fad9eeaU,
  0x52f21b7f0a14e56eU, 0xe8ead65bbb2ffcd4U, 0xd39e7f1f08d47f05U, 0xda416be81df0888bU,
  0x3b19cdec1df0eb1cU, 0x7150900de14e635U, 0x24ea1e03fafb1bd1U, 0xe78811908e608faU,
  0xd1161efda8021013U, 0xf6f5e059fdb40732U, 0x1015ff17f00de5e8U, 0x32c06011e18e617U,
  0x800210916fe1c22U, 0xea14f1f9dd04f8faU, 0xa14070f00fd14feU, 0x9414efffa6eab128U,
  0x13f6132c00eedd04U, 0xf4a93306f70017f1U, 0x811d06db0ff6080eU, 0x23121b3a131ef709U,
  0xfe1cfd50051d60f1U, 0xff0def09e9e4130dU, 0xc3298027f238133U, 0xbad9e740d07fb717U,
  0x28be7ffb003c39bcU, 0xddf5e531e6987ffeU, 0x7dc8f33eb0e7287fU, 0xe4dcb775e3c3b535U,
  0x117f452b4b98f4e3U, 0xd50c0eeee55981cfU, 0x2144b1eae730db57U, 0xd0fc1432aa1627ecU,
  0x65fadf381c01223U, 0x84fb99046b27a4adU, 0xef13fc62c781ead8U, 0xd2043237d59de37dU,
  0xb87f1553eef8e5a3U, 0x7f987f7fff1023e7U, 0x81f8e630017f141aU, 0xf703817f16d6efeaU,
  0xc71e091630fbe82aU, 0x25fd08fbe44cdb41U, 0x10e51cfb0eef42d7U, 0x15819e09f6de0ff2U,
  0xb9052a1a8efb1119U, 0xec06ff6f1498e404U, 0xff1c04174618d4cdU, 0xf9e703fcf025de0dU,
  0x90fe30500de1722U, 0x4814fc17170ae71fU, 0xeef9ec0fe9f00c81U, 0x91020de835ee1f7fU,
  0x308f42813f0dc05U, 0xf17f3b0c080b15f5U, 0x8b1a130401f603f4U, 0x8ff1d2af312fa14U,
  0x3e60388ff0f86efU, 0xd008c0ff0d5f8e5U, 0xfffff46bffffc63fU, 0xfffffb31000022feU,
  0x22b9fffffe5eU, 0xfffff5a2ffffd4ddU, 0x7b300001e3cU, 0xc0d3fffff81cU,
  0xfffffaf3ffffdd90U, 0xdf5000002e4U, 0xfffffba600009276U, 0x169ffffde4aU,
  0xffffed48ffffe80cU, 0xffffc7c6fffff749U, 0xffffff3cfffff285U, 0x252000039b4U,
  0x8a42ffffd00fU, 0xfffffc4ffffffb45U, 0xffffd983000019ceU, 0x118ad00000c94U,
  0xffffe6d9fffff25cU, 0xffffd9c700003798U, 0xffffcdc000000dd5U, 0xfffffb100000a926U,
  0xfffff52b000012aeU, 0x42eb00000341U, 0xfffffdde000007ddU, 0xffffce2100005c2fU,
  0xfffff36800004badU, 0xfffffd38ffffe93aU, 0xfffffa3dffffffc2U, 0x784ffffa8efU,
  0xfffff593fffff6b7U, 0x42f1fffff11dU, 0x2d82ffffff24U, 0x571200001886U,
  0xffffdee400002193U, 0xfffffb30ffffc10aU, 0xfffff695fffff5fbU, 0x4964ffffde79U,
  0xffffd21cffffc0f5U, 0xfffff597ffffd1a5U, 0xfffffe8c000044a1U, 0xffffde76fffffa68U,
  0x877ffffff7e9U, 0xffffcb13ffffe388U, 0xffffe049ffffce1dU, 0xffffdff0ffffe6a4U,
  0x72c2ffffed44U, 0x4fa1fffff453U, 0x83e00000377U, 0x2b23ffffe5ddU,
  0x1e3fffffa07U, 0xfffff120ffffd55dU, 0x5969000007fcU, 0xfffffb7700006850U,
  0x8ca000052b0U, 0x3c6a0000067dU, 0xfffff965fffff57cU, 0xfffff8b6ffffdc2bU,
  0x1934ffffe58eU, 0xffffdcb4fffffa21U, 0xffffd8f4000033c8U, 0xfffff754ffffd72dU,
  0xfffffd31ffffbd76U, 0xfffffc5700001ea2U, 0xfffffcafffffe7b8U, 0xfffffc5afffffa60U,
  0xfffff9aaffffd62eU, 0x2b06fffffe23U, 0xfffffd92fffffba0U, 0xffffd0bcfffff607U,
  0xffffee62fffffef1U, 0x1c9ffffc605U, 0x651ed6f8eaebec28U, 0xdf22f205ef16cd00U,
  0x134a23cecfddeb2dU, 0x2e2803f5e51aeaf6U, 0x15fce1d5ffe22731U, 0x3125254409c60442U,
  0xfcc4eaf0f51848f6U, 0x14dade08e01e2ce8U, 0x18ef18e1dc3df92bU, 0xf2f632d2d69908f9U,
  0xe5fc0fe4f20d010dU, 0x48ca3209f8002b18U, 0xf1e1efed29d2e6e6U, 0x21247fed10fa36c7U,
  0xdfe7ec2f22ec29f0U, 0xe8ebe719e91cf1f1U, 0xf11e3edfdf2f9ecU, 0xe8e305f4ccff00feU,
  0xe1fadaf259072704U, 0xfe0aaf1101091a47U, 0x11263dfcf20e29d4U, 0xc2172d10c2c36305U,
  0xc4f02a27f0d3b83bU, 0xd8ef0e20cbf2e5f4U, 0x2317f0edd6f2f31eU, 0xe40afd2109fb5b63U,
  0x35a110d80610df0aU, 0xdfefd7f404232528U, 0xe9ddf2cd487cfedaU, 0xc5b810c5e2f0fadaU,
  0xfa1b0440c7c8ebdfU, 0xe3e00013d60c1449U, 0x7f201ceef93917U, 0x1adb79f62208e4f6U,
  0xe800e6ea1e4611cfU, 0x1f0dfe72f0f0cca3U, 0xccd301f4313f3beaU, 0x1d0503fd540c52d8U,
  0xba5425096030fdf5U, 0x5ce9e50825340a04U, 0xdb1af5d04d0407f5U, 0xe70f4bdd2652e228U,
  0x1126bbead51cb240U, 0x5764adf61bf7151dU, 0x4fd901020bc42a25U, 0x15385344e917d759U,
  0x19edba86d1cff822U, 0xfe0d45eadef4d8e0U, 0x93d6d017df491824U, 0x81e49fe824282d20U,
  0x28ff2b0defe4c5fcU, 0xeee02f1ddd0e00f4U, 0x13b8f1d0062e202bU, 0x3a530733dc1bc9d6U,
  0xef2f60f4c3101U, 0x8d9eafc1d074109U, 0x1dbdf121c9fbc1d1U, 0xde07c82303e0a1faU,
  0xb63a3994c528000eU, 0xe1185beaddf4d17fU, 0xea1ff4284e351a0cU, 0xd51a2f024becfff6U,
  0x11264219dabef626U, 0xfc11cd19b4f6b2dfU, 0x926dd141803db26U, 0xd43a09d0c22fe443U,
  0xf8cffb0edf3aa6f6U, 0xeac3fe39e7b7db08U, 0x30ff1817ec0a303dU, 0x9eedf181b030bf1U,
  0x30a1406e905bdf2U, 0xf026fd03ebc8fe2aU, 0x81e4deddf258b6daU, 0x262004f1ca62350aU,
  0xe60a190ce7b533ecU, 0x3bc53efd15e8fdcaU, 0x3cf825ea0903e90eU, 0xf83705d40a2ede57U,
  0x1322e73de81a8106U, 0x181ed31829fcf826U, 0x58dbf8e50df330ccU, 0xe533b916c753093aU,
  0x2728d3e3f901ef3aU, 0x264e22e6c916c0feU, 0xe2f8e2cdccaed002U, 0xfed9061e636d6e2U,
  0xa50f1ee609d7f100U, 0x420fc7ef16b330e4U, 0xf5ce05c80f24dc1dU, 0x26bd05e7e2bdfce9U,
  0x273f053d27dc2d16U, 0xd020d9403a10262cU, 0xff09c71240fc0cddU, 0xf01ee221f2121b10U,
  0xe8f41afeecfbd51dU, 0xe9ddd8bbd228faf5U, 0x2706c78a077fc9f5U, 0xfc10deb0075bdfecU,
  0x20ded0e4f42b0ef3U, 0xe52a2bd30bf2def4U, 0x2221dcf900f0a518U, 0x4ec434f19fde115U,
  0xf0dc19ceeff1321fU, 0x4a18ac2caef91ee2U, 0x2020bc2f0816e3edU, 0x213728e50c3f186eU,
  0x16f20a29d330d35bU, 0x300b111235e9eadcU, 0x296c9afa0808c547U, 0x11e615e1060ae613U,
  0x3edfa17171752e2U, 0x2e1365fd41c5ef46U, 0xe0e71519f82846f2U, 0xfa4104e733fbf5deU,
  0xca1dea0b032d2fd1U, 0xa539223d05feeef2U, 0xd301fc020af6e2eaU, 0xfa0e04dc34b6f21cU,
  0x8e251de95b0bf4e8U, 0x11e57f1eafdeaf3U, 0x1908e9e2e1c8d2f7U, 0xa70c3001f8cdfb11U,
  0xe05510df8f8faf5U, 0x13200c81eb36fdf7U, 0xff04dfc61ae40efbU, 0xf31006efe7040f14U,
  0xcdf05050f2c0007U, 0x1df2f8d22ce51f4cU, 0x1ffff7e2e70c8f22U, 0x330130ec27eff801U,
  0xf83ac01eb8f302feU, 0xf929df631bc7dbd1U, 0xdf61b18f2d0fbcaU, 0xf6f52100f817130fU,
  0xf7350125fbf9fbcbU, 0x1b13dee004ef015bU, 0xf417dfd01d1931edU, 0x121ff50a011de01cU,
  0x19b2fbdcec2dabf0U, 0xacf335532dbad7b4U, 0x2200fba914d41fdbU, 0xeefaef7f10dc14deU,
  0x18f812f64c10f421U, 0xeb0de5f50d011a37U, 0x2e454bdbf781c21eU, 0x2a4c6f15202b368dU,
  0x2e1fe924071cded4U, 0x101427bbf79ce804U, 0xfdf8e1f622fa36e5U, 0x46fb6a0ae5fbf368U,
  0xa6f638bf1be6f84eU, 0x1e68edd150ec0c51U, 0xd718ee1e3237d4baU, 0xf89c449b1819c92eU,
  0x3b6ecabeb4f92d22U, 0x360fbf77fab2073aU, 0x329effde089f14ccU, 0xff08fab6e7364819U,
  0xebe66a240a0b450cU, 0xdc30f521021ce816U, 0xf7d43025decc26ffU, 0xf50628d0015c0d59U,
